unsigned char model_tflite[] = {
  0x1c, 0x00, 0x00, 0x00, 0x54, 0x46, 0x4c, 0x33, 0x14, 0x00, 0x20, 0x00,
  0x1c, 0x00, 0x18, 0x00, 0x14, 0x00, 0x10, 0x00, 0x0c, 0x00, 0x00, 0x00,
  0x08, 0x00, 0x04, 0x00, 0x14, 0x00, 0x00, 0x00, 0x1c, 0x00, 0x00, 0x00,
  0x8c, 0x00, 0x00, 0x00, 0xe4, 0x00, 0x00, 0x00, 0xe0, 0x3f, 0x00, 0x00,
  0xf0, 0x3f, 0x00, 0x00, 0xe4, 0x56, 0x00, 0x00, 0x03, 0x00, 0x00, 0x00,
  0x01, 0x00, 0x00, 0x00, 0x10, 0x00, 0x00, 0x00, 0x00, 0x00, 0x0a, 0x00,
  0x10, 0x00, 0x0c, 0x00, 0x08, 0x00, 0x04, 0x00, 0x0a, 0x00, 0x00, 0x00,
  0x0c, 0x00, 0x00, 0x00, 0x1c, 0x00, 0x00, 0x00, 0x38, 0x00, 0x00, 0x00,
  0x0f, 0x00, 0x00, 0x00, 0x73, 0x65, 0x72, 0x76, 0x69, 0x6e, 0x67, 0x5f,
  0x64, 0x65, 0x66, 0x61, 0x75, 0x6c, 0x74, 0x00, 0x01, 0x00, 0x00, 0x00,
  0x04, 0x00, 0x00, 0x00, 0x9c, 0xff, 0xff, 0xff, 0x14, 0x00, 0x00, 0x00,
  0x04, 0x00, 0x00, 0x00, 0x07, 0x00, 0x00, 0x00, 0x72, 0x65, 0x5f, 0x6c,
  0x75, 0x5f, 0x36, 0x00, 0x01, 0x00, 0x00, 0x00, 0x04, 0x00, 0x00, 0x00,
  0xb2, 0xc0, 0xff, 0xff, 0x04, 0x00, 0x00, 0x00, 0x07, 0x00, 0x00, 0x00,
  0x69, 0x6e, 0x70, 0x75, 0x74, 0x5f, 0x31, 0x00, 0x02, 0x00, 0x00, 0x00,
  0x34, 0x00, 0x00, 0x00, 0x04, 0x00, 0x00, 0x00, 0xdc, 0xff, 0xff, 0xff,
  0x17, 0x00, 0x00, 0x00, 0x04, 0x00, 0x00, 0x00, 0x13, 0x00, 0x00, 0x00,
  0x43, 0x4f, 0x4e, 0x56, 0x45, 0x52, 0x53, 0x49, 0x4f, 0x4e, 0x5f, 0x4d,
  0x45, 0x54, 0x41, 0x44, 0x41, 0x54, 0x41, 0x00, 0x08, 0x00, 0x0c, 0x00,
  0x08, 0x00, 0x04, 0x00, 0x08, 0x00, 0x00, 0x00, 0x16, 0x00, 0x00, 0x00,
  0x04, 0x00, 0x00, 0x00, 0x13, 0x00, 0x00, 0x00, 0x6d, 0x69, 0x6e, 0x5f,
  0x72, 0x75, 0x6e, 0x74, 0x69, 0x6d, 0x65, 0x5f, 0x76, 0x65, 0x72, 0x73,
  0x69, 0x6f, 0x6e, 0x00, 0x18, 0x00, 0x00, 0x00, 0xf8, 0x3e, 0x00, 0x00,
  0xec, 0x3e, 0x00, 0x00, 0xd8, 0x3e, 0x00, 0x00, 0xa0, 0x3e, 0x00, 0x00,
  0x10, 0x3e, 0x00, 0x00, 0x00, 0x1a, 0x00, 0x00, 0x70, 0x19, 0x00, 0x00,
  0x60, 0x07, 0x00, 0x00, 0x10, 0x07, 0x00, 0x00, 0x80, 0x02, 0x00, 0x00,
  0x50, 0x02, 0x00, 0x00, 0x20, 0x01, 0x00, 0x00, 0x00, 0x01, 0x00, 0x00,
  0xcc, 0x00, 0x00, 0x00, 0xc4, 0x00, 0x00, 0x00, 0xbc, 0x00, 0x00, 0x00,
  0xb4, 0x00, 0x00, 0x00, 0xac, 0x00, 0x00, 0x00, 0xa4, 0x00, 0x00, 0x00,
  0x9c, 0x00, 0x00, 0x00, 0x94, 0x00, 0x00, 0x00, 0x8c, 0x00, 0x00, 0x00,
  0x6c, 0x00, 0x00, 0x00, 0x04, 0x00, 0x00, 0x00, 0x86, 0xc1, 0xff, 0xff,
  0x04, 0x00, 0x00, 0x00, 0x58, 0x00, 0x00, 0x00, 0x0c, 0x00, 0x00, 0x00,
  0x08, 0x00, 0x0e, 0x00, 0x08, 0x00, 0x04, 0x00, 0x08, 0x00, 0x00, 0x00,
  0x10, 0x00, 0x00, 0x00, 0x28, 0x00, 0x00, 0x00, 0x00, 0x00, 0x06, 0x00,
  0x08, 0x00, 0x04, 0x00, 0x06, 0x00, 0x00, 0x00, 0x04, 0x00, 0x00, 0x00,
  0x01, 0x00, 0x00, 0x00, 0xeb, 0x03, 0x00, 0x00, 0x00, 0x00, 0x0a, 0x00,
  0x10, 0x00, 0x0c, 0x00, 0x08, 0x00, 0x04, 0x00, 0x0a, 0x00, 0x00, 0x00,
  0x02, 0x00, 0x00, 0x00, 0x02, 0x00, 0x00, 0x00, 0x04, 0x00, 0x00, 0x00,
  0x06, 0x00, 0x00, 0x00, 0x32, 0x2e, 0x31, 0x34, 0x2e, 0x30, 0x00, 0x00,
  0xea, 0xc1, 0xff, 0xff, 0x04, 0x00, 0x00, 0x00, 0x10, 0x00, 0x00, 0x00,
  0x31, 0x2e, 0x31, 0x34, 0x2e, 0x30, 0x00, 0x00, 0x00, 0x00, 0x00, 0x00,
  0x00, 0x00, 0x00, 0x00, 0xec, 0xc1, 0xff, 0xff, 0xf0, 0xc1, 0xff, 0xff,
  0xf4, 0xc1, 0xff, 0xff, 0xf8, 0xc1, 0xff, 0xff, 0xfc, 0xc1, 0xff, 0xff,
  0x00, 0xc2, 0xff, 0xff, 0x04, 0xc2, 0xff, 0xff, 0x08, 0xc2, 0xff, 0xff,
  0x26, 0xc2, 0xff, 0xff, 0x04, 0x00, 0x00, 0x00, 0x24, 0x00, 0x00, 0x00,
  0x53, 0xfd, 0x05, 0xad, 0x18, 0x2f, 0x20, 0x11, 0x81, 0x00, 0xcb, 0x41,
  0x63, 0x81, 0x1d, 0xe2, 0x88, 0x7b, 0x0c, 0xac, 0x66, 0xe2, 0x06, 0x58,
  0xd2, 0xbf, 0x7f, 0x09, 0x7f, 0x40, 0xfc, 0x16, 0xe3, 0xbd, 0x47, 0x43,
  0x56, 0xc2, 0xff, 0xff, 0x04, 0x00, 0x00, 0x00, 0x10, 0x00, 0x00, 0x00,
  0x07, 0x00, 0x00, 0x00, 0x04, 0x00, 0x00, 0x00, 0x0a, 0x00, 0x00, 0x00,
  0xe5, 0xff, 0xff, 0xff, 0x72, 0xc2, 0xff, 0xff, 0x04, 0x00, 0x00, 0x00,
  0x20, 0x01, 0x00, 0x00, 0xfd, 0x05, 0xeb, 0xf1, 0xd7, 0x27, 0x25, 0x2e,
  0x63, 0xf6, 0x0f, 0x56, 0xd3, 0x4f, 0xc7, 0xaf, 0x2a, 0x7f, 0x13, 0xc7,
  0x6b, 0xff, 0x3b, 0x03, 0x49, 0x4c, 0x31, 0xd3, 0xf2, 0xfe, 0x40, 0xbe,
  0x7b, 0xe9, 0xe4, 0x36, 0x00, 0x27, 0xe7, 0xc6, 0x81, 0xcf, 0x38, 0xed,
  0x0c, 0x01, 0xf1, 0x2d, 0x2d, 0x2a, 0x1a, 0x29, 0x17, 0xf4, 0xe5, 0x27,
  0x35, 0x37, 0xf5, 0x34, 0x39, 0x4f, 0xd3, 0x03, 0xb0, 0x46, 0x20, 0x00,
  0x59, 0x6b, 0x04, 0xf3, 0xdb, 0xb9, 0xe0, 0x21, 0x02, 0xcf, 0xf8, 0x08,
  0xf4, 0x9b, 0xe8, 0xe7, 0xff, 0xe6, 0x01, 0x29, 0x1f, 0xe9, 0x1a, 0x21,
  0xf2, 0x22, 0x2e, 0xd9, 0x3d, 0xdc, 0x29, 0xe5, 0x21, 0xb4, 0x25, 0xe6,
  0xbe, 0x7f, 0x24, 0xf5, 0x88, 0xee, 0x35, 0x11, 0xcd, 0xfc, 0x61, 0xe6,
  0x71, 0x18, 0xb2, 0x25, 0xfb, 0xd3, 0x1c, 0xf6, 0x7d, 0xc4, 0x24, 0x2c,
  0x43, 0xd5, 0xf8, 0x03, 0x2e, 0x2b, 0xc8, 0x0e, 0x7f, 0xef, 0xb6, 0x05,
  0x11, 0x03, 0xf1, 0xd8, 0x10, 0x4c, 0x16, 0x04, 0x2f, 0x12, 0xe2, 0xf2,
  0x81, 0x40, 0x00, 0xcf, 0xf1, 0x3d, 0x2b, 0xdc, 0xe4, 0x18, 0x04, 0xea,
  0xfa, 0x51, 0x3b, 0xbe, 0x47, 0x2d, 0xf2, 0xff, 0x11, 0xe3, 0x0e, 0xea,
  0x0f, 0x38, 0xf2, 0xd7, 0xf8, 0xef, 0x47, 0x0a, 0x7f, 0xc7, 0xc5, 0xdb,
  0x98, 0x73, 0x32, 0x04, 0x40, 0x2c, 0xbc, 0x1b, 0x10, 0xeb, 0xdd, 0xf7,
  0x33, 0x50, 0xdb, 0xc1, 0x4a, 0x15, 0xc8, 0x53, 0xae, 0x5b, 0xa8, 0x0b,
  0x5a, 0x29, 0x5b, 0x2c, 0x13, 0xda, 0xd6, 0x47, 0xe0, 0x11, 0x27, 0x24,
  0xc1, 0xcd, 0xe4, 0x18, 0xb6, 0x47, 0x4c, 0x36, 0x13, 0x0f, 0x0d, 0x0f,
  0xb8, 0x81, 0x3d, 0x0f, 0xd2, 0x9c, 0x06, 0x04, 0x2e, 0x3e, 0x41, 0xec,
  0x96, 0xbd, 0x46, 0x4b, 0x0b, 0x4c, 0x3f, 0x1e, 0xec, 0x20, 0x07, 0x21,
  0x0e, 0xf9, 0xf5, 0xdd, 0x56, 0x7f, 0x4f, 0xd8, 0xcd, 0x42, 0x05, 0x3d,
  0x38, 0x0e, 0xf6, 0x23, 0x34, 0xe9, 0xc7, 0xe8, 0x38, 0xe8, 0x06, 0xd2,
  0x3a, 0xd7, 0xd1, 0xd5, 0x9e, 0xc3, 0xff, 0xff, 0x04, 0x00, 0x00, 0x00,
  0x20, 0x00, 0x00, 0x00, 0x03, 0x00, 0x00, 0x00, 0xf1, 0xff, 0xff, 0xff,
  0x01, 0x00, 0x00, 0x00, 0x00, 0x00, 0x00, 0x00, 0xfc, 0xff, 0xff, 0xff,
  0xfd, 0xff, 0xff, 0xff, 0xf0, 0xff, 0xff, 0xff, 0x05, 0x00, 0x00, 0x00,
  0xca, 0xc3, 0xff, 0xff, 0x04, 0x00, 0x00, 0x00, 0x80, 0x04, 0x00, 0x00,
  0x35, 0x2c, 0x43, 0xf3, 0x19, 0x01, 0x2f, 0x3f, 0xcb, 0xe4, 0x0d, 0xd2,
  0x7f, 0xa1, 0xef, 0xff, 0xa7, 0xd1, 0xdc, 0x66, 0xc3, 0x9f, 0x3c, 0xf4,
  0x01, 0x41, 0xf8, 0x29, 0xe5, 0x48, 0x32, 0x33, 0xf4, 0xf5, 0x1e, 0x2f,
  0xb3, 0x47, 0x0b, 0x1f, 0xc8, 0xc8, 0x06, 0xe2, 0x44, 0x2b, 0xcc, 0x37,
  0x1b, 0x08, 0xd4, 0x44, 0xf3, 0xd1, 0xb4, 0x2f, 0x1e, 0x1b, 0x1e, 0xe1,
  0xfd, 0x89, 0xc9, 0xae, 0x2d, 0x30, 0x49, 0x1e, 0xe5, 0xdc, 0x1c, 0xd4,
  0x1e, 0xe3, 0x2e, 0xe9, 0x2c, 0x10, 0xed, 0xe6, 0x12, 0x07, 0x32, 0x2c,
  0xc6, 0xc7, 0x09, 0x00, 0x63, 0xf9, 0xeb, 0x00, 0x76, 0x32, 0xe6, 0x4a,
  0xf3, 0xcf, 0xe0, 0xb2, 0xff, 0x2c, 0x06, 0x10, 0x18, 0x00, 0xf3, 0x04,
  0xbd, 0xc8, 0x09, 0xf2, 0xd2, 0xb6, 0xcf, 0xe1, 0xb9, 0xa9, 0xcd, 0xed,
  0xfb, 0xef, 0x53, 0xe4, 0xfc, 0x27, 0xf6, 0xf7, 0x4d, 0x03, 0xe8, 0xd1,
  0x81, 0x18, 0xec, 0x04, 0xbe, 0xc4, 0x1d, 0x41, 0x99, 0xc1, 0xfe, 0x36,
  0x4a, 0xb3, 0x36, 0x4a, 0xc0, 0xef, 0xe3, 0xbd, 0x4a, 0x3a, 0x2e, 0x2c,
  0xde, 0x0c, 0xe1, 0xd3, 0x3c, 0xed, 0xcc, 0xf5, 0xf9, 0xd0, 0x3c, 0x46,
  0x07, 0x47, 0xd4, 0xb0, 0x31, 0x38, 0xed, 0x2f, 0x3f, 0x3e, 0xfd, 0xba,
  0x89, 0x31, 0xd3, 0x37, 0x2d, 0xd2, 0x4f, 0x14, 0xff, 0xf7, 0x27, 0x0a,
  0x3c, 0xb7, 0x18, 0xb1, 0x13, 0x0e, 0xcf, 0xc0, 0xcc, 0x5d, 0xd6, 0x4d,
  0x9a, 0xae, 0x41, 0xd1, 0xca, 0xbd, 0xca, 0xe5, 0x81, 0x16, 0x53, 0xbf,
  0xea, 0xc5, 0x24, 0xee, 0x12, 0xe7, 0xca, 0x31, 0x09, 0xf8, 0x06, 0x0f,
  0x11, 0x57, 0x0e, 0x1e, 0x13, 0xda, 0xe5, 0x3f, 0xbf, 0xbd, 0xce, 0x18,
  0xc5, 0x27, 0x26, 0x1d, 0xdd, 0x43, 0x04, 0x3b, 0xff, 0x34, 0x23, 0xc0,
  0x1e, 0x7f, 0xf0, 0x23, 0x03, 0x16, 0xd7, 0xef, 0xd6, 0xf9, 0xec, 0x4a,
  0x11, 0xf5, 0xfa, 0x25, 0xd5, 0xda, 0x1a, 0xe9, 0xe0, 0xf0, 0xf7, 0x1e,
  0x93, 0x2e, 0x2b, 0xdb, 0xc6, 0xe3, 0x1a, 0xd0, 0xf5, 0xf4, 0x1e, 0xeb,
  0xd1, 0xdf, 0xd8, 0xfb, 0xb7, 0xf4, 0xb9, 0xe5, 0x67, 0x3b, 0x07, 0x15,
  0xb2, 0x30, 0xdb, 0xd8, 0x42, 0x2a, 0x26, 0xbb, 0x7f, 0x46, 0x13, 0x40,
  0xd2, 0x28, 0x41, 0x25, 0xc0, 0xf3, 0xbc, 0xeb, 0x71, 0x3d, 0x08, 0xc4,
  0x46, 0x6d, 0xc9, 0xf8, 0xbd, 0x4f, 0x3c, 0x14, 0xba, 0x69, 0x22, 0x3e,
  0x0e, 0xef, 0xc7, 0x03, 0x34, 0x57, 0x3b, 0x11, 0x60, 0xbf, 0xec, 0xfd,
  0x15, 0x04, 0x19, 0xfc, 0x20, 0xc0, 0xd8, 0xd0, 0x1f, 0xc3, 0x18, 0x11,
  0x63, 0xea, 0xaf, 0xc6, 0xc9, 0x06, 0x61, 0xd6, 0x2c, 0xcd, 0x3b, 0xe8,
  0x63, 0xf8, 0xe5, 0xc2, 0xf3, 0x5a, 0x2c, 0x37, 0x65, 0x31, 0x2d, 0xb0,
  0x7f, 0x3c, 0xc4, 0xc6, 0xad, 0xc5, 0xcb, 0x26, 0x68, 0x4a, 0x12, 0x12,
  0xf4, 0x50, 0x17, 0x33, 0xd0, 0x57, 0x09, 0x56, 0xbf, 0xd0, 0x40, 0x64,
  0x30, 0x05, 0x25, 0xe5, 0x1a, 0x08, 0xc0, 0x0a, 0x22, 0xb2, 0xb2, 0x39,
  0xb6, 0xcd, 0xe3, 0xf9, 0xfa, 0xa9, 0xc7, 0xb6, 0x45, 0xb4, 0x98, 0x3b,
  0x5d, 0x21, 0xc9, 0x59, 0xfa, 0x81, 0xce, 0x22, 0xfe, 0xc7, 0xfc, 0x4e,
  0x4b, 0x2d, 0x43, 0x25, 0x01, 0x4f, 0xf7, 0xca, 0xca, 0x26, 0x2f, 0x5a,
  0x34, 0x10, 0x2e, 0x33, 0x09, 0x15, 0xdf, 0xe3, 0xef, 0xc5, 0xc7, 0x38,
  0x46, 0x2b, 0x26, 0xf4, 0xaf, 0xfd, 0x0b, 0xd4, 0x2e, 0xf2, 0xc7, 0x3f,
  0xcd, 0xd8, 0xf4, 0x35, 0x1c, 0xc0, 0xdb, 0x2d, 0x03, 0xc6, 0x76, 0xd5,
  0xa5, 0xa4, 0x2c, 0xa8, 0x16, 0x22, 0xea, 0xe9, 0xed, 0x95, 0xf1, 0xfd,
  0xee, 0xe7, 0x15, 0x3d, 0xe0, 0x0d, 0x23, 0x01, 0xa9, 0xe2, 0x34, 0xfb,
  0x46, 0x40, 0x1b, 0x3c, 0x86, 0xb9, 0x08, 0x81, 0x0a, 0xef, 0xbc, 0xaf,
  0xf1, 0x31, 0xaf, 0x31, 0xe4, 0x48, 0x23, 0x23, 0xbb, 0x4d, 0x55, 0x2a,
  0x58, 0xfc, 0x47, 0x25, 0xa6, 0xec, 0x1c, 0xd8, 0xe6, 0xfd, 0x01, 0xe1,
  0x01, 0x0d, 0x05, 0xea, 0xaf, 0x09, 0xe1, 0x19, 0x22, 0x0f, 0x30, 0x1b,
  0xd4, 0xe2, 0x1b, 0x49, 0x52, 0x24, 0xe5, 0x5e, 0x67, 0x60, 0xcb, 0x66,
  0xb3, 0xf0, 0xe8, 0xfc, 0x40, 0xe4, 0x39, 0xe1, 0xbd, 0x03, 0x32, 0xd9,
  0x81, 0x55, 0xb4, 0xb7, 0x24, 0x2a, 0x46, 0x1d, 0x85, 0x0a, 0x1d, 0xe5,
  0x25, 0x03, 0x1e, 0x68, 0x10, 0x0a, 0x04, 0x47, 0x1e, 0xbc, 0x0a, 0x40,
  0x46, 0x50, 0x11, 0x15, 0x46, 0xef, 0x1c, 0xd0, 0xa2, 0xda, 0x12, 0x54,
  0x25, 0x07, 0xdd, 0x18, 0xdb, 0x27, 0xda, 0x98, 0x1d, 0xcf, 0xa9, 0xd8,
  0x10, 0x01, 0xd0, 0x49, 0x4a, 0xd3, 0x2b, 0x24, 0x30, 0x38, 0x28, 0xc1,
  0xf3, 0xe8, 0xca, 0x2a, 0x11, 0x12, 0x30, 0x27, 0xbf, 0xf8, 0x0b, 0x0b,
  0x2f, 0x10, 0x0d, 0xe2, 0xcc, 0xdd, 0x08, 0x19, 0xec, 0x01, 0x21, 0x21,
  0x0a, 0xfd, 0x27, 0xd9, 0x5f, 0xa7, 0x1a, 0x39, 0xef, 0xfb, 0x26, 0x08,
  0xe7, 0xf7, 0x17, 0xd4, 0xe5, 0xfd, 0xe5, 0x3b, 0x7f, 0xb1, 0x33, 0xd8,
  0xfa, 0x05, 0x2f, 0xe5, 0xa2, 0x21, 0xe3, 0xd3, 0xba, 0xd3, 0x0b, 0xb8,
  0xb9, 0xb5, 0x03, 0xee, 0x89, 0xd6, 0x0f, 0x27, 0x22, 0xbd, 0xfd, 0xd2,
  0xca, 0xcb, 0x4f, 0xd4, 0xd0, 0xf9, 0xcb, 0x02, 0x31, 0x0d, 0xe7, 0x29,
  0x15, 0x2c, 0xfe, 0xf0, 0x24, 0xaf, 0x29, 0x56, 0x0a, 0x58, 0x2c, 0x09,
  0x4d, 0x4b, 0xfa, 0xc0, 0x4a, 0x37, 0x26, 0x6a, 0xe3, 0x25, 0xfa, 0x5f,
  0x07, 0x46, 0xfb, 0x0c, 0xd3, 0x09, 0xe7, 0x56, 0xb3, 0xe6, 0xc2, 0x26,
  0xfa, 0x49, 0x21, 0xfe, 0xf8, 0x8f, 0xfb, 0x49, 0x95, 0x40, 0xf5, 0xf9,
  0xc0, 0x33, 0xf7, 0xeb, 0x36, 0xb4, 0xf3, 0xbb, 0x81, 0xfe, 0x23, 0xbc,
  0xdf, 0xcb, 0x0e, 0xf2, 0x6c, 0xa4, 0x0e, 0x19, 0xf8, 0x3d, 0x18, 0xf6,
  0xcc, 0xd9, 0xd3, 0x0d, 0x22, 0x14, 0xea, 0x2d, 0xde, 0xef, 0xf3, 0xee,
  0x08, 0x35, 0xff, 0x00, 0xd6, 0x1d, 0x32, 0xce, 0xa9, 0xf1, 0xec, 0x3b,
  0x7f, 0xf6, 0xd8, 0x28, 0x24, 0x17, 0xe1, 0xe2, 0xe9, 0xd5, 0x07, 0xa5,
  0x25, 0x28, 0x3c, 0xd5, 0xbe, 0x3d, 0x03, 0x28, 0xfb, 0x13, 0x2c, 0xe0,
  0x35, 0x0c, 0x1e, 0x68, 0x21, 0xf3, 0xd9, 0xde, 0x28, 0x13, 0x33, 0x1e,
  0xf5, 0x2c, 0x0f, 0x1b, 0x98, 0x11, 0xf9, 0x23, 0x35, 0x54, 0xc7, 0x28,
  0x09, 0x73, 0xf0, 0xdc, 0x09, 0xeb, 0xe5, 0x3e, 0xb1, 0x49, 0xec, 0x7f,
  0x15, 0xf5, 0x0d, 0x64, 0xef, 0xd4, 0x06, 0x02, 0xbb, 0xff, 0x12, 0xea,
  0xe6, 0xb8, 0xda, 0x0c, 0x20, 0x36, 0x1f, 0x45, 0x04, 0xeb, 0xcb, 0xd6,
  0x2b, 0x4c, 0xed, 0xbd, 0x34, 0x37, 0xd8, 0xf2, 0x0f, 0x1b, 0x37, 0x30,
  0xe4, 0x33, 0xe0, 0x4a, 0x2a, 0xc5, 0x33, 0xd6, 0x36, 0x46, 0xeb, 0xef,
  0xd3, 0xe2, 0x1a, 0x71, 0xd6, 0x3c, 0xaf, 0x45, 0xfd, 0x50, 0x2d, 0xd0,
  0xf9, 0x09, 0x32, 0x23, 0x3b, 0x46, 0x35, 0xe1, 0xc8, 0x03, 0x10, 0xde,
  0x1f, 0xff, 0xc9, 0xbf, 0x33, 0xec, 0xca, 0xfe, 0x52, 0xb9, 0xe8, 0x21,
  0xfc, 0x39, 0xc2, 0xf9, 0x2e, 0x20, 0xee, 0xde, 0xb9, 0x22, 0x24, 0x4b,
  0xad, 0x34, 0xd5, 0xc4, 0xd0, 0xd7, 0x27, 0xce, 0x20, 0xd3, 0x38, 0xe5,
  0xc0, 0xcc, 0xf2, 0xbc, 0x5b, 0x23, 0x38, 0x10, 0x7f, 0x0d, 0xe3, 0x17,
  0xc5, 0x10, 0xf7, 0x5b, 0x15, 0x2a, 0x1d, 0x19, 0x97, 0xfe, 0xf3, 0xd7,
  0xe1, 0xf5, 0xa4, 0x97, 0x27, 0xe8, 0x2e, 0x0d, 0xf6, 0xbb, 0xe7, 0xe0,
  0xde, 0xce, 0x78, 0xdc, 0x4a, 0x77, 0x4a, 0xb2, 0x12, 0xe2, 0xe1, 0xcf,
  0xc6, 0xda, 0x14, 0x13, 0xfb, 0x00, 0xed, 0x81, 0x10, 0xc0, 0xe7, 0xdb,
  0x47, 0xc0, 0xe0, 0x24, 0xf2, 0x48, 0xed, 0x91, 0x1d, 0x22, 0x3a, 0x28,
  0xac, 0xf0, 0x22, 0x62, 0x03, 0xea, 0xc1, 0xdb, 0xd0, 0xe9, 0xd7, 0xdd,
  0xe7, 0xf5, 0xe5, 0x0e, 0xca, 0xdc, 0x0f, 0x17, 0x0a, 0xe9, 0xd6, 0x19,
  0xf6, 0xf9, 0xee, 0x2d, 0x0d, 0x1a, 0x35, 0xf5, 0x20, 0x1a, 0x23, 0x23,
  0x12, 0xe2, 0x0d, 0x03, 0xf3, 0xe1, 0x03, 0x1a, 0x21, 0xff, 0xdd, 0x09,
  0xb4, 0x23, 0x04, 0xfb, 0x20, 0x01, 0xfd, 0x07, 0xed, 0x2d, 0xf0, 0xcc,
  0x14, 0x25, 0xd0, 0x17, 0x03, 0x38, 0x04, 0xdc, 0xf7, 0xe1, 0x1e, 0xe4,
  0xcd, 0xe6, 0x16, 0xfa, 0xd0, 0x22, 0x08, 0x01, 0x81, 0xff, 0xe7, 0x0f,
  0x56, 0xc8, 0xff, 0xff, 0x04, 0x00, 0x00, 0x00, 0x40, 0x00, 0x00, 0x00,
  0x10, 0x00, 0x00, 0x00, 0x29, 0x00, 0x00, 0x00, 0x02, 0x00, 0x00, 0x00,
  0x02, 0x00, 0x00, 0x00, 0xf6, 0xff, 0xff, 0xff, 0xfd, 0xff, 0xff, 0xff,
  0x0a, 0x00, 0x00, 0x00, 0x00, 0x00, 0x00, 0x00, 0xfd, 0xff, 0xff, 0xff,
  0x0c, 0x00, 0x00, 0x00, 0x08, 0x00, 0x00, 0x00, 0xfb, 0xff, 0xff, 0xff,
  0x0a, 0x00, 0x00, 0x00, 0xfc, 0xff, 0xff, 0xff, 0x24, 0x00, 0x00, 0x00,
  0xf9, 0xff, 0xff, 0xff, 0xa2, 0xc8, 0xff, 0xff, 0x04, 0x00, 0x00, 0x00,
  0x00, 0x12, 0x00, 0x00, 0x2e, 0xbb, 0x27, 0xf9, 0x14, 0xe2, 0x30, 0x34,
  0x26, 0x3d, 0xc8, 0xed, 0xd8, 0xa7, 0x34, 0x14, 0x1f, 0x37, 0xf3, 0x3c,
  0xda, 0x50, 0xe1, 0xf3, 0xe4, 0xeb, 0x18, 0xe2, 0x0c, 0x04, 0x26, 0xf1,
  0x21, 0x7f, 0x0d, 0xd8, 0xd7, 0x2a, 0x28, 0xdf, 0xf6, 0xf7, 0xc5, 0x12,
  0xda, 0xb3, 0xbe, 0xf1, 0xdd, 0xf8, 0x31, 0xdf, 0xc1, 0x12, 0x11, 0xf5,
  0xd8, 0x34, 0x05, 0xc3, 0x45, 0x28, 0x41, 0xd5, 0x44, 0x2d, 0xec, 0x8c,
  0xf5, 0xd4, 0x1f, 0xe0, 0x1b, 0x02, 0x3e, 0xe0, 0x1f, 0xcf, 0x1c, 0xf6,
  0x0e, 0x36, 0xce, 0xc6, 0xeb, 0x30, 0x0d, 0xf8, 0x38, 0xe7, 0x07, 0x11,
  0xfc, 0xe7, 0xa9, 0x03, 0x54, 0x2c, 0xdd, 0xd9, 0x95, 0xe2, 0x19, 0xfd,
  0xcd, 0xd7, 0xc5, 0x1e, 0x11, 0x16, 0xf9, 0xf1, 0xdf, 0x29, 0xd6, 0xa7,
  0xe1, 0xe0, 0xd3, 0x1c, 0x3a, 0x16, 0x10, 0x25, 0x12, 0x41, 0x15, 0xe9,
  0xec, 0xf8, 0x18, 0x2a, 0xe7, 0x05, 0xf7, 0xd0, 0xfd, 0xf6, 0x07, 0x0b,
  0x14, 0xe0, 0xc9, 0x1b, 0xe1, 0x81, 0xee, 0x5a, 0x38, 0x05, 0xd7, 0xe2,
  0xd8, 0x1b, 0x27, 0x1d, 0x41, 0xc1, 0xfc, 0xeb, 0x55, 0xda, 0xc1, 0x03,
  0xd1, 0xdc, 0x06, 0x19, 0x06, 0xfa, 0xe9, 0x16, 0xd3, 0xf7, 0xe9, 0xcb,
  0xec, 0x0e, 0x40, 0xdb, 0x3b, 0x0a, 0xfa, 0xfe, 0xfa, 0x0c, 0xb7, 0x35,
  0xbf, 0xfa, 0x1a, 0xc9, 0xfa, 0x8c, 0x14, 0xca, 0x2c, 0x26, 0xec, 0x07,
  0x2a, 0x23, 0x2b, 0xff, 0xfb, 0xc3, 0xc9, 0x24, 0x0e, 0x86, 0xf5, 0xba,
  0xe2, 0x07, 0x59, 0x28, 0xf1, 0x15, 0xeb, 0x20, 0x3c, 0x2b, 0x27, 0x19,
  0x10, 0x4a, 0x04, 0xb2, 0x12, 0xdf, 0xd9, 0xe8, 0x3c, 0x10, 0x2e, 0x06,
  0x07, 0x5d, 0xb7, 0xd3, 0x1b, 0x0f, 0x07, 0x01, 0x86, 0xb8, 0x1c, 0x48,
  0xea, 0x13, 0x4a, 0xe5, 0x0a, 0xe0, 0x49, 0x08, 0xc3, 0x1d, 0xc4, 0xe7,
  0xda, 0x30, 0xe4, 0x15, 0x2b, 0xc7, 0xd0, 0xd0, 0xf0, 0x02, 0xd8, 0xcc,
  0x99, 0x91, 0x32, 0x30, 0x42, 0x5e, 0xe9, 0xe1, 0xfc, 0xb4, 0xfc, 0xf2,
  0xe5, 0xfd, 0xba, 0x3a, 0x08, 0x75, 0xe7, 0x06, 0xe4, 0xd4, 0x0c, 0x09,
  0xd9, 0x0e, 0x17, 0xfe, 0x24, 0x09, 0x15, 0xdd, 0xf1, 0x39, 0x02, 0xe4,
  0xf6, 0xd5, 0xe0, 0xb3, 0xff, 0x2c, 0xbc, 0x25, 0x14, 0x2d, 0x29, 0x22,
  0xef, 0x63, 0xf3, 0x03, 0x01, 0xf0, 0xf5, 0xfa, 0xd6, 0xe0, 0xe4, 0x07,
  0x3e, 0xdd, 0xd7, 0x14, 0x1b, 0x7f, 0xcf, 0xfc, 0xd2, 0xfb, 0xc8, 0x20,
  0xf3, 0xed, 0x18, 0xfc, 0x0a, 0xf2, 0xe4, 0x29, 0xf1, 0xf3, 0x05, 0x29,
  0x1b, 0xbe, 0xc5, 0x10, 0xe5, 0xea, 0xeb, 0x1e, 0xe7, 0xff, 0xf2, 0xbb,
  0xcf, 0xc2, 0xe1, 0xf4, 0xf9, 0x27, 0xdf, 0x13, 0xf3, 0xf6, 0x01, 0x0b,
  0xea, 0xf1, 0xe8, 0xe8, 0x08, 0xe7, 0xe1, 0x07, 0xe5, 0x0d, 0x07, 0x27,
  0x18, 0xed, 0x1a, 0x13, 0xfc, 0xed, 0xe7, 0xcf, 0x14, 0xf7, 0xea, 0x52,
  0x1a, 0x0a, 0xde, 0xeb, 0xdf, 0x12, 0x2b, 0xf2, 0xf4, 0xa2, 0xc5, 0xeb,
  0x17, 0x1e, 0xf9, 0x24, 0xfe, 0xeb, 0x1b, 0x1d, 0x00, 0xf5, 0x4c, 0x03,
  0x24, 0xf4, 0xb8, 0x06, 0xfb, 0x16, 0xe5, 0xe2, 0xdf, 0xff, 0xe9, 0x91,
  0x0c, 0x0c, 0x20, 0xe1, 0xef, 0xd7, 0xd8, 0x10, 0x2f, 0x07, 0x02, 0x38,
  0xe2, 0xea, 0x31, 0x2b, 0xf3, 0xd3, 0x10, 0x11, 0xcc, 0xf9, 0x7f, 0x30,
  0x35, 0x22, 0xc7, 0xe6, 0x0b, 0xed, 0xd9, 0x52, 0xd0, 0x2f, 0xc8, 0xe9,
  0xac, 0xb7, 0x18, 0xc3, 0xd1, 0xc5, 0xda, 0xb7, 0xfd, 0x20, 0xe5, 0xf8,
  0x13, 0x39, 0x64, 0x27, 0x1f, 0xf8, 0xa3, 0xf6, 0xf3, 0xe9, 0x25, 0xea,
  0x15, 0xfd, 0xfd, 0x3e, 0x27, 0x0e, 0xdb, 0xd3, 0xf4, 0x0c, 0x31, 0x4d,
  0x3c, 0xf5, 0xf2, 0xcd, 0x20, 0x0a, 0xcc, 0x3e, 0x0c, 0x19, 0xce, 0xfa,
  0x35, 0xca, 0xc2, 0x0e, 0xde, 0xda, 0xe1, 0x1e, 0xd2, 0xd7, 0x19, 0xe6,
  0x28, 0xec, 0x1e, 0xf3, 0x11, 0xff, 0x5c, 0xfa, 0xcb, 0xb6, 0x31, 0x31,
  0x22, 0xc8, 0x37, 0xcf, 0xf3, 0xe5, 0x54, 0xe2, 0xc5, 0x10, 0x61, 0xea,
  0xe2, 0x1f, 0x03, 0xb0, 0xcf, 0x26, 0xe4, 0xe0, 0x0b, 0xc0, 0x03, 0xdf,
  0x12, 0x0c, 0xf1, 0x63, 0xf6, 0x9d, 0xbd, 0xed, 0x01, 0x05, 0x21, 0xed,
  0xf9, 0x2a, 0x1f, 0x33, 0x53, 0xe8, 0x61, 0x0a, 0xc0, 0x19, 0x18, 0xec,
  0x2f, 0x29, 0x28, 0xf9, 0xf1, 0x00, 0x02, 0x98, 0xdf, 0xd3, 0xf8, 0x3c,
  0xce, 0xf0, 0x06, 0xef, 0xc9, 0xee, 0xca, 0xf6, 0x22, 0x1b, 0xf8, 0x2f,
  0x1f, 0x0e, 0x00, 0xad, 0xeb, 0x28, 0xe0, 0xef, 0xf2, 0x38, 0xfe, 0x13,
  0x2f, 0x1b, 0x36, 0xff, 0xe7, 0xb2, 0xc5, 0x4c, 0x13, 0x53, 0xfb, 0x1b,
  0x29, 0x47, 0x06, 0x15, 0x2a, 0xd3, 0xfc, 0xb5, 0x09, 0x0e, 0xef, 0x14,
  0xeb, 0x94, 0x22, 0xe7, 0xca, 0x0f, 0x1d, 0x19, 0x03, 0x07, 0xed, 0x37,
  0xfb, 0xb6, 0x24, 0x39, 0x30, 0x07, 0x33, 0x6b, 0xa5, 0x36, 0x01, 0x9c,
  0x02, 0x46, 0x61, 0x00, 0xc4, 0xaf, 0xc3, 0x2a, 0x11, 0xd1, 0xfa, 0xec,
  0xe2, 0xdc, 0x0f, 0x9d, 0xf1, 0x4a, 0x0b, 0xf0, 0xfd, 0x33, 0x6d, 0xde,
  0xcf, 0x1d, 0xfd, 0x2e, 0x0c, 0x24, 0x22, 0x19, 0xe7, 0x1d, 0xff, 0xa1,
  0xf6, 0x01, 0x81, 0x58, 0x1c, 0x31, 0x16, 0xbc, 0xdf, 0x25, 0xf7, 0x27,
  0xd7, 0x2e, 0xec, 0x02, 0x06, 0x28, 0x2b, 0xcc, 0xe9, 0x13, 0x01, 0xd3,
  0xd7, 0x0a, 0xab, 0xdf, 0x0e, 0xf1, 0x07, 0x1d, 0xf7, 0x15, 0x3b, 0xb8,
  0xd1, 0x11, 0x12, 0x32, 0x0f, 0x13, 0xd6, 0xd5, 0x38, 0x9e, 0xe8, 0x17,
  0x18, 0xef, 0xab, 0x48, 0x07, 0x5a, 0x22, 0x48, 0x02, 0xfb, 0xc8, 0xf7,
  0xc0, 0x0b, 0xe1, 0x1a, 0xef, 0x20, 0xf7, 0x08, 0xf3, 0x0f, 0xdf, 0xbf,
  0x33, 0xde, 0x1e, 0x1c, 0x25, 0xda, 0xfd, 0x05, 0xa4, 0x15, 0x81, 0xf1,
  0xfd, 0x16, 0x17, 0xce, 0x16, 0x24, 0x0f, 0xfa, 0x24, 0x11, 0xdc, 0xe8,
  0x22, 0x01, 0x28, 0x13, 0x11, 0xbc, 0x15, 0x1d, 0x06, 0xcd, 0xe4, 0x0f,
  0x2a, 0x0f, 0x30, 0x09, 0xf3, 0xce, 0x24, 0xef, 0xd8, 0x0e, 0x07, 0x1d,
  0x1d, 0xe7, 0x0f, 0xd6, 0x2f, 0x28, 0xdf, 0xdb, 0x24, 0xfa, 0xb1, 0x3a,
  0xc6, 0x20, 0x29, 0xf3, 0x1f, 0xe3, 0xf8, 0x18, 0xe1, 0x2a, 0x0d, 0xd2,
  0xdf, 0x03, 0xa4, 0x22, 0xb8, 0x36, 0x8d, 0x08, 0x2f, 0xa8, 0x37, 0xdf,
  0xbf, 0x30, 0xa9, 0xa1, 0xe5, 0xe3, 0xa2, 0xb8, 0xd0, 0x4f, 0xb3, 0xbd,
  0xee, 0x2e, 0xb7, 0xec, 0x3d, 0x35, 0x39, 0x8e, 0xd5, 0x1b, 0x13, 0xd0,
  0x1f, 0xf4, 0xbe, 0x61, 0xc8, 0x50, 0xfa, 0xe2, 0x40, 0x46, 0xfc, 0xc9,
  0x29, 0x53, 0x57, 0xa0, 0xe3, 0xbd, 0xca, 0x24, 0x24, 0xfd, 0x88, 0xb4,
  0xcb, 0xd9, 0x06, 0x81, 0x1d, 0x3f, 0xf1, 0x4f, 0x21, 0x5d, 0xf6, 0x23,
  0xe9, 0xc9, 0x38, 0x05, 0xbf, 0xfc, 0x32, 0x8e, 0x3b, 0xa1, 0xb5, 0xc9,
  0x9e, 0xcf, 0xd2, 0x9d, 0xbe, 0xce, 0xbc, 0xff, 0x11, 0xa7, 0xcf, 0x29,
  0xaa, 0x1c, 0xb8, 0x53, 0xa6, 0xb0, 0x4c, 0xf9, 0xef, 0x1c, 0xcd, 0xa2,
  0x03, 0x04, 0x3b, 0xdf, 0xac, 0x4c, 0xe9, 0xf5, 0xa5, 0xf8, 0xb7, 0xa7,
  0x9a, 0xb9, 0x3e, 0x26, 0x4b, 0x47, 0x26, 0xde, 0x9d, 0xe1, 0x37, 0xb0,
  0xf0, 0xc0, 0xba, 0xcc, 0xa1, 0xb3, 0x43, 0xc8, 0xac, 0x9a, 0xf9, 0x10,
  0xcb, 0xdf, 0xc1, 0xb6, 0xfd, 0xb6, 0xc5, 0xff, 0x13, 0xc6, 0x31, 0xf9,
  0xfb, 0xe2, 0x1d, 0xf6, 0x44, 0x32, 0xf4, 0x0a, 0xd8, 0xc1, 0x0a, 0xe1,
  0x07, 0x18, 0xd2, 0xa1, 0x20, 0x90, 0xd0, 0x10, 0x1b, 0x3f, 0x14, 0x2f,
  0xf3, 0x0c, 0x25, 0xf5, 0x19, 0x13, 0xf7, 0xe3, 0xec, 0xca, 0xf9, 0x17,
  0xf3, 0x0d, 0xbe, 0x33, 0x47, 0xf8, 0xe9, 0x1d, 0x11, 0xe7, 0xc4, 0x16,
  0x10, 0x11, 0x07, 0xf2, 0x0f, 0x28, 0x02, 0x0f, 0xe7, 0x19, 0x2e, 0x37,
  0x27, 0x07, 0x1a, 0xb0, 0xf4, 0xf7, 0xd4, 0xf0, 0xdd, 0x10, 0x47, 0x17,
  0x0a, 0x07, 0xfc, 0xe1, 0xea, 0xf6, 0xe4, 0x01, 0xdc, 0x35, 0x0d, 0x24,
  0xd3, 0xd9, 0xd1, 0xee, 0xba, 0xef, 0xf7, 0xe6, 0x0f, 0xcc, 0xdf, 0x28,
  0x1a, 0x19, 0x04, 0x0e, 0x0b, 0xd3, 0x7f, 0x16, 0xad, 0xe5, 0x05, 0x1c,
  0x26, 0xf0, 0xc5, 0xd6, 0xf8, 0xe7, 0x11, 0xd9, 0x05, 0xea, 0xe1, 0xd6,
  0xdb, 0xe7, 0xd5, 0xb4, 0x02, 0x00, 0x1a, 0x1b, 0x10, 0xe3, 0xe9, 0x16,
  0x00, 0xd1, 0x16, 0xfc, 0xd3, 0xe2, 0xdc, 0x18, 0x25, 0x28, 0xb2, 0x32,
  0x3a, 0x1f, 0xf1, 0x2f, 0xfd, 0x31, 0x8b, 0xfb, 0xfe, 0x26, 0xee, 0xfa,
  0x07, 0xf8, 0xf2, 0x0d, 0xdf, 0x57, 0xb5, 0x08, 0xf0, 0xfb, 0xc5, 0xc4,
  0xfa, 0xee, 0x07, 0x19, 0x05, 0xb9, 0xcf, 0x2b, 0xdf, 0x02, 0xd6, 0x11,
  0xd5, 0xe2, 0xb8, 0xee, 0xf8, 0x40, 0x17, 0xf2, 0x06, 0x23, 0x07, 0xf5,
  0x1f, 0x0e, 0xd7, 0xff, 0xfd, 0xcd, 0x97, 0xf1, 0x04, 0xca, 0xec, 0x0a,
  0xf6, 0x2a, 0xed, 0x18, 0xef, 0xf7, 0x0d, 0xf6, 0x37, 0x1d, 0xcd, 0x46,
  0x21, 0x81, 0xd7, 0x1d, 0x34, 0x45, 0x0b, 0xe3, 0xf2, 0xdc, 0x0a, 0xdf,
  0xe0, 0xe0, 0x52, 0xd4, 0x0a, 0x06, 0x34, 0xfa, 0xff, 0xfc, 0x55, 0xb2,
  0x23, 0x04, 0x41, 0xe2, 0x24, 0x06, 0x3e, 0x2a, 0x2f, 0xfe, 0x0e, 0xea,
  0x17, 0x06, 0x08, 0xe0, 0x44, 0x04, 0xf3, 0xd5, 0xde, 0x27, 0x38, 0x0c,
  0xf8, 0x4f, 0xf4, 0x05, 0xb9, 0x22, 0xf7, 0x01, 0x08, 0xf7, 0x2a, 0xc0,
  0x01, 0xcd, 0x5a, 0x22, 0xaa, 0x2d, 0xfa, 0xeb, 0x11, 0xea, 0xbe, 0xa6,
  0x1b, 0x20, 0xee, 0xe0, 0x46, 0x05, 0xd9, 0x01, 0x25, 0xdc, 0x0e, 0x4b,
  0x37, 0x23, 0x35, 0xd8, 0x14, 0x1a, 0xd2, 0xe0, 0x81, 0xf0, 0xd1, 0xfb,
  0x34, 0xd7, 0x06, 0xd9, 0x02, 0x1d, 0x19, 0x39, 0x05, 0xb7, 0x54, 0xee,
  0x88, 0xcb, 0x16, 0x02, 0xe9, 0x49, 0x31, 0x19, 0x0e, 0xf3, 0x2c, 0xde,
  0x24, 0x12, 0x06, 0xe3, 0x10, 0x17, 0x14, 0x0a, 0x44, 0xe1, 0x2f, 0xbb,
  0xe6, 0x0a, 0x0e, 0xce, 0xdf, 0x36, 0x34, 0xe0, 0xc4, 0x2c, 0x29, 0x2f,
  0xd3, 0xed, 0xcc, 0xe7, 0x08, 0x0d, 0xfc, 0x2a, 0xf4, 0x04, 0xe0, 0x01,
  0x11, 0x3c, 0x1f, 0x56, 0x09, 0x6f, 0x1e, 0x09, 0xe9, 0x07, 0x19, 0xbb,
  0xf7, 0x40, 0x03, 0x04, 0x23, 0xcf, 0x25, 0x05, 0xf5, 0x29, 0xe3, 0x98,
  0x28, 0xe1, 0x07, 0x23, 0xf8, 0xcf, 0xf2, 0xec, 0x2b, 0x47, 0x45, 0xed,
  0xd8, 0x0f, 0x0b, 0x1c, 0x0c, 0x00, 0xf1, 0xcc, 0xde, 0xb5, 0xe9, 0xe1,
  0xfa, 0xe2, 0xc9, 0xf9, 0x17, 0x29, 0xdc, 0x92, 0xb5, 0x15, 0xc9, 0xf9,
  0xda, 0x13, 0x07, 0xf8, 0xf5, 0xb6, 0x07, 0x2d, 0x0b, 0x18, 0xd1, 0x18,
  0xb2, 0xff, 0x24, 0xfc, 0x0d, 0x14, 0x0a, 0x16, 0xeb, 0xdf, 0x24, 0x23,
  0xf0, 0x9f, 0xf4, 0xe5, 0x02, 0xc9, 0x27, 0x10, 0x45, 0x36, 0x07, 0xe9,
  0xfe, 0x0f, 0x00, 0x2b, 0xf3, 0x16, 0x11, 0x00, 0xbf, 0x23, 0xe6, 0x02,
  0x0a, 0x35, 0x18, 0x0b, 0x09, 0x81, 0x24, 0x21, 0x2b, 0xf1, 0xf1, 0x1a,
  0x1d, 0xf0, 0x0c, 0x0c, 0x02, 0xe0, 0x16, 0x03, 0x20, 0xd3, 0xa9, 0x02,
  0x04, 0xf2, 0xef, 0x01, 0x17, 0x01, 0x3e, 0xf9, 0xde, 0x07, 0x1f, 0x03,
  0xbb, 0x34, 0xe3, 0xc6, 0xfc, 0xbe, 0x04, 0x56, 0xce, 0x64, 0xc5, 0xf0,
  0x24, 0xfe, 0x0f, 0xcb, 0x0f, 0x38, 0x4d, 0xbc, 0x3c, 0x0b, 0x1e, 0x04,
  0x0f, 0x17, 0x34, 0x39, 0xe6, 0xd6, 0x18, 0x19, 0x10, 0x0b, 0x04, 0xfe,
  0x1d, 0x43, 0x1a, 0x25, 0xd9, 0x16, 0xe0, 0xbe, 0xdb, 0x55, 0xf1, 0xd7,
  0xb2, 0xf8, 0xef, 0xd6, 0xc8, 0xed, 0xc7, 0x3a, 0x30, 0x30, 0xf4, 0x16,
  0x15, 0xc8, 0x37, 0xfa, 0x30, 0xfe, 0xc1, 0x0f, 0xef, 0x20, 0xc9, 0xd5,
  0xe6, 0xf1, 0xf1, 0x22, 0xe1, 0x81, 0x14, 0x18, 0x20, 0xda, 0x1d, 0x1a,
  0x03, 0x9e, 0x05, 0x07, 0xb6, 0x24, 0xdf, 0xf9, 0x0b, 0xd9, 0xe0, 0xee,
  0xde, 0xf9, 0x1b, 0xf0, 0xfa, 0x8d, 0xf8, 0x1b, 0x1c, 0xe6, 0xf6, 0xcf,
  0x1c, 0xa0, 0x03, 0x12, 0x4c, 0x29, 0x32, 0xe8, 0x15, 0x5a, 0xe5, 0xac,
  0x1e, 0xdc, 0xb3, 0x3c, 0xba, 0xbd, 0xe7, 0xcf, 0xff, 0xce, 0xe5, 0xdb,
  0x00, 0xdb, 0x0e, 0x17, 0xcf, 0xed, 0xc3, 0x34, 0xe8, 0x08, 0xce, 0xf1,
  0xc9, 0xf5, 0x5f, 0xd5, 0xab, 0x15, 0x22, 0x21, 0x15, 0xac, 0x4c, 0xa1,
  0xfb, 0x51, 0xc3, 0x18, 0xea, 0x16, 0x38, 0xdd, 0xd8, 0x18, 0x11, 0x00,
  0x14, 0x20, 0xfd, 0xce, 0xb0, 0xf5, 0xd1, 0x0d, 0x0a, 0x1a, 0xde, 0xff,
  0xd6, 0x36, 0xda, 0xd3, 0x94, 0x04, 0xf5, 0xde, 0xdc, 0xe9, 0x12, 0xd1,
  0xce, 0x0b, 0xd6, 0x0c, 0xfc, 0x2d, 0x15, 0x00, 0xfe, 0xa3, 0x1c, 0xff,
  0x12, 0xed, 0x23, 0x16, 0x49, 0x3f, 0x40, 0xf3, 0xf7, 0xe6, 0x05, 0x69,
  0x00, 0xc8, 0x21, 0xf9, 0x1e, 0x14, 0x04, 0x23, 0x2c, 0x11, 0xe7, 0xd9,
  0xd5, 0xf8, 0xe2, 0xec, 0xda, 0xbf, 0xa7, 0xf9, 0xa2, 0x15, 0x81, 0xb2,
  0x22, 0x24, 0xf8, 0xda, 0x21, 0xb0, 0xac, 0x00, 0x04, 0xd1, 0x0b, 0x5d,
  0x07, 0xf4, 0x1a, 0x09, 0x02, 0xfe, 0xf0, 0xe6, 0x14, 0xda, 0xe1, 0x25,
  0xe0, 0xeb, 0xbb, 0xe8, 0x63, 0xf6, 0xe4, 0xfe, 0xd7, 0xff, 0xe8, 0xde,
  0xd4, 0x11, 0x03, 0xe3, 0x33, 0x05, 0xc1, 0x3f, 0xda, 0x29, 0xbe, 0xf7,
  0xe9, 0xde, 0x3a, 0xbd, 0x24, 0xae, 0xfa, 0xcb, 0x10, 0xec, 0x08, 0x39,
  0x3a, 0x5f, 0xff, 0x01, 0xcd, 0xf5, 0xf8, 0xff, 0xfd, 0xf8, 0x32, 0x4d,
  0xf3, 0x1e, 0xd3, 0xe0, 0x01, 0x21, 0x4f, 0x32, 0xfe, 0xfe, 0xc4, 0x0e,
  0x0f, 0x42, 0xc4, 0x49, 0x2a, 0x0d, 0x1a, 0xd7, 0x17, 0x00, 0x2e, 0x15,
  0x3a, 0xdd, 0xc6, 0x21, 0x24, 0xde, 0x00, 0x1d, 0x1b, 0x06, 0x27, 0x16,
  0x34, 0xff, 0x1e, 0x24, 0x46, 0x2c, 0x25, 0x1a, 0x2e, 0x33, 0xf0, 0xfc,
  0xe2, 0x22, 0xe3, 0xec, 0x0c, 0x3d, 0x10, 0xf1, 0x11, 0x20, 0xc4, 0xe9,
  0x0b, 0x35, 0x07, 0xf4, 0x43, 0x01, 0xc5, 0xe9, 0xde, 0xf9, 0xe3, 0x3b,
  0xe7, 0xe4, 0xd9, 0x06, 0x12, 0xeb, 0x24, 0xe6, 0xf6, 0x2a, 0x21, 0x04,
  0xda, 0xce, 0xe8, 0xd6, 0x04, 0x43, 0xed, 0x39, 0xd1, 0x02, 0x1a, 0x4b,
  0x2f, 0xf4, 0xe4, 0xe1, 0x35, 0x10, 0xee, 0x0b, 0x21, 0x4f, 0x08, 0xeb,
  0x05, 0xd5, 0x0a, 0xe7, 0xee, 0x09, 0xd3, 0x0c, 0x26, 0x07, 0xf2, 0xc5,
  0xb4, 0x43, 0xeb, 0xb2, 0xbb, 0x0a, 0xae, 0x81, 0xf0, 0xcf, 0xc6, 0xc2,
  0xe5, 0xdd, 0xd6, 0xec, 0x11, 0xec, 0x1c, 0xd8, 0xc6, 0x1e, 0x00, 0x26,
  0x21, 0xf7, 0x03, 0x17, 0xf6, 0x3a, 0x11, 0x17, 0x00, 0xd6, 0x22, 0x32,
  0xf4, 0x1e, 0xea, 0x2c, 0x21, 0xe6, 0x22, 0xda, 0xc3, 0x09, 0xf2, 0x33,
  0xf4, 0xfc, 0xfc, 0x3b, 0x17, 0xc7, 0x89, 0xfc, 0xe7, 0xc8, 0x02, 0xdc,
  0x0a, 0xed, 0xca, 0x0d, 0x0e, 0x3b, 0x05, 0x30, 0xcc, 0x43, 0xb4, 0x81,
  0xea, 0xe7, 0x0f, 0xc7, 0xc0, 0xde, 0xa6, 0x1f, 0xbb, 0xe6, 0xf2, 0x00,
  0x2f, 0xa4, 0xee, 0xda, 0xbc, 0xee, 0xd0, 0x3d, 0xb9, 0x36, 0x9d, 0xfd,
  0xec, 0x19, 0x16, 0xea, 0x25, 0x35, 0x10, 0x0e, 0x17, 0x3f, 0xf6, 0x30,
  0x12, 0x29, 0x3c, 0x0a, 0xe7, 0xf7, 0xf2, 0xf0, 0xe3, 0xec, 0x28, 0x62,
  0x0f, 0x12, 0x3a, 0xff, 0x0e, 0x41, 0xfe, 0x15, 0x06, 0xe5, 0x1c, 0x1a,
  0x0f, 0xda, 0xeb, 0x14, 0x21, 0xce, 0xde, 0xfd, 0x0a, 0x00, 0xc8, 0x01,
  0xfe, 0xe2, 0x04, 0x35, 0x12, 0x41, 0x5f, 0x06, 0x0a, 0x31, 0x08, 0x19,
  0x07, 0x22, 0x33, 0x1a, 0x07, 0x1f, 0xf3, 0x40, 0xe5, 0xed, 0x2d, 0x38,
  0x0c, 0x29, 0x19, 0xb4, 0xec, 0x28, 0x14, 0x0a, 0x12, 0xe1, 0xa6, 0xdd,
  0xf7, 0xe0, 0x14, 0xf5, 0x19, 0xfc, 0xdc, 0xf1, 0x29, 0x2b, 0x2c, 0x02,
  0xd3, 0x36, 0xf4, 0x0a, 0xf8, 0x21, 0xe8, 0xd9, 0xd1, 0xea, 0xd8, 0xdc,
  0x29, 0x81, 0x2d, 0x2c, 0x22, 0xef, 0xe9, 0x33, 0xfa, 0x29, 0xeb, 0xed,
  0xf2, 0x9b, 0x13, 0xd6, 0x19, 0xd0, 0x02, 0x17, 0xfc, 0x33, 0xf5, 0x2a,
  0xfe, 0x05, 0xf9, 0xaf, 0xde, 0x01, 0x4b, 0x13, 0xaa, 0x5b, 0xad, 0xe6,
  0xcc, 0xe0, 0x24, 0xcd, 0x28, 0x06, 0xd6, 0x1c, 0xdd, 0xf8, 0x0d, 0x0c,
  0x08, 0x97, 0xff, 0xf6, 0xda, 0xa7, 0x45, 0xe4, 0xfb, 0xe4, 0xef, 0x0c,
  0x27, 0x10, 0xf1, 0xec, 0x00, 0x86, 0x0b, 0x06, 0xed, 0x24, 0x45, 0x0d,
  0x0e, 0xfa, 0x19, 0x15, 0x24, 0x22, 0xd7, 0xef, 0xdd, 0xfe, 0x06, 0xea,
  0x20, 0xe8, 0xe2, 0xd0, 0xe1, 0xf5, 0x0c, 0x04, 0x19, 0x0a, 0x2c, 0x2c,
  0xe4, 0xff, 0x1c, 0x09, 0xbd, 0xf5, 0x0c, 0xf0, 0x1a, 0xa7, 0xf0, 0x28,
  0x15, 0x27, 0x1b, 0x0d, 0x26, 0x10, 0xf6, 0x0c, 0x0a, 0xc8, 0x57, 0x31,
  0x22, 0xb3, 0x0e, 0x33, 0xe7, 0xec, 0x28, 0x07, 0xeb, 0xe7, 0x1a, 0xe4,
  0x32, 0x3f, 0x35, 0x31, 0x02, 0x29, 0xd7, 0xf7, 0xd3, 0xfd, 0xbc, 0xfa,
  0x06, 0xfd, 0x29, 0xe9, 0x13, 0xac, 0xba, 0xee, 0xe6, 0x19, 0xec, 0x24,
  0x0d, 0xdc, 0x0f, 0xf7, 0x19, 0x23, 0xcb, 0xd6, 0xe4, 0xd3, 0x7a, 0xd3,
  0x1d, 0xda, 0x13, 0xe8, 0xc3, 0x22, 0xc4, 0x39, 0xf9, 0x10, 0xd3, 0x0b,
  0xad, 0xbb, 0xfb, 0xdb, 0xc1, 0x75, 0xc8, 0xcd, 0x0c, 0x1f, 0x3d, 0x16,
  0x29, 0xbe, 0xd5, 0x1a, 0xd3, 0x1d, 0xdf, 0xd4, 0xfc, 0x25, 0xe6, 0xe5,
  0x08, 0xd1, 0xdc, 0x1a, 0x43, 0xdb, 0xf5, 0xfc, 0x4b, 0x3e, 0xd8, 0x2b,
  0x24, 0xf8, 0xfd, 0x29, 0x0d, 0xd8, 0x1c, 0x0f, 0xbd, 0xab, 0xe8, 0x1c,
  0x04, 0x1c, 0x3d, 0xa4, 0xf8, 0x50, 0xce, 0xfc, 0x18, 0xca, 0x3d, 0xe3,
  0xf2, 0xe1, 0xfd, 0xf8, 0x10, 0xf8, 0x81, 0xfb, 0xdf, 0x5c, 0x09, 0x23,
  0x07, 0x29, 0x37, 0x2e, 0x13, 0xf7, 0x04, 0x1e, 0x24, 0x3c, 0xf0, 0xf9,
  0xe7, 0xef, 0x15, 0xd7, 0x2e, 0x1c, 0x1b, 0xfe, 0xe7, 0x23, 0x16, 0xd8,
  0x06, 0xdf, 0x21, 0xf4, 0xdb, 0x28, 0x0c, 0x13, 0x08, 0x20, 0xe0, 0x0a,
  0xd1, 0x11, 0x12, 0xd6, 0xf0, 0xfe, 0xbf, 0xec, 0xf6, 0x1f, 0x0d, 0xdc,
  0xf9, 0xf1, 0xe0, 0x11, 0xe9, 0xc1, 0x10, 0xe3, 0x18, 0x0c, 0x1c, 0xf3,
  0x10, 0xe7, 0x12, 0x22, 0xdb, 0xec, 0x0e, 0x17, 0xfe, 0xeb, 0x10, 0x18,
  0x42, 0xed, 0xed, 0xfd, 0xea, 0xe8, 0x00, 0xe4, 0x18, 0x0d, 0xe6, 0xe7,
  0xe0, 0xf7, 0xcb, 0xea, 0x0a, 0xe9, 0xc7, 0xff, 0xf3, 0x22, 0x38, 0xf6,
  0x17, 0xaf, 0xef, 0xeb, 0xc6, 0x0b, 0xfd, 0x1d, 0x09, 0xea, 0x26, 0xef,
  0x1f, 0xef, 0xda, 0x24, 0x1f, 0x10, 0xf8, 0xd8, 0x14, 0xf7, 0x25, 0xf2,
  0xf0, 0x22, 0xec, 0xed, 0xec, 0x0b, 0x0a, 0x24, 0x0e, 0xfb, 0x2c, 0xdc,
  0xf3, 0xea, 0x08, 0xd8, 0xc4, 0xcb, 0xd4, 0xdf, 0xfb, 0x1b, 0x0e, 0xd9,
  0xff, 0xfe, 0xe2, 0x37, 0xf8, 0xff, 0xf2, 0x02, 0xf7, 0xb1, 0xf1, 0x05,
  0xe8, 0xd4, 0xf2, 0x12, 0x06, 0x81, 0xe1, 0x15, 0x25, 0xe7, 0x2a, 0x21,
  0x39, 0x0b, 0x35, 0xfc, 0x02, 0x16, 0x28, 0xeb, 0x1c, 0xd9, 0xfd, 0x14,
  0x17, 0x0d, 0x16, 0x22, 0x1c, 0xa4, 0x18, 0xd0, 0xc6, 0xff, 0xde, 0x12,
  0x21, 0xf8, 0x04, 0x11, 0x02, 0x17, 0x07, 0xe4, 0xf6, 0xe1, 0xed, 0x29,
  0x0c, 0x15, 0x0c, 0xdf, 0xd9, 0x17, 0xe7, 0xf3, 0x0e, 0xd8, 0xce, 0x08,
  0xe4, 0xcb, 0x0d, 0x0e, 0xd5, 0xf5, 0xd0, 0x34, 0x1b, 0xfc, 0xeb, 0x1d,
  0xe7, 0xff, 0x21, 0x02, 0xfc, 0x34, 0x49, 0x15, 0x2e, 0x1c, 0xef, 0xf4,
  0xe8, 0xdb, 0xec, 0xcd, 0x2f, 0xb5, 0xea, 0x23, 0x1a, 0x2c, 0x56, 0xf4,
  0xe0, 0xe9, 0xea, 0xd2, 0x19, 0xf1, 0x0b, 0x20, 0xc8, 0x81, 0xfb, 0x22,
  0x34, 0xfa, 0x07, 0x0c, 0x2b, 0xdf, 0xde, 0x41, 0xf7, 0xb3, 0x2f, 0xf8,
  0xe3, 0x00, 0x13, 0x1f, 0xeb, 0x00, 0x21, 0x20, 0xed, 0x30, 0x32, 0x08,
  0xfb, 0x28, 0xe8, 0x04, 0xec, 0xcf, 0xfa, 0x08, 0x0c, 0x00, 0x25, 0xfc,
  0x09, 0xdd, 0xf9, 0x0d, 0xe7, 0xff, 0xef, 0xd8, 0x02, 0xdd, 0x1c, 0xec,
  0x23, 0x17, 0x22, 0xef, 0x22, 0x18, 0x10, 0xc1, 0xe7, 0x30, 0xde, 0xf0,
  0xee, 0x12, 0x06, 0xdf, 0xe9, 0xf9, 0xe3, 0xfc, 0xf9, 0x30, 0x1a, 0xf0,
  0x02, 0xe6, 0x28, 0x27, 0x30, 0x11, 0x0d, 0x25, 0x20, 0xee, 0x0c, 0xf5,
  0x21, 0xbe, 0x36, 0x28, 0xf9, 0xfa, 0x0a, 0xe6, 0xf0, 0x13, 0x1d, 0xda,
  0xdf, 0x1f, 0x0b, 0x02, 0x1f, 0x00, 0xf1, 0xe9, 0x0f, 0xfc, 0xf1, 0xf5,
  0xec, 0xd6, 0x08, 0xf5, 0x00, 0x13, 0x7f, 0xfb, 0x04, 0xdf, 0x10, 0xd2,
  0xf8, 0xcd, 0x1a, 0x08, 0xe9, 0xf2, 0x1d, 0x1a, 0x19, 0xeb, 0x13, 0x28,
  0x03, 0x0b, 0x26, 0x1b, 0xef, 0xdf, 0xf4, 0xcf, 0xe8, 0xf8, 0xf3, 0xd6,
  0xe7, 0x05, 0x3f, 0x1d, 0x05, 0x14, 0x04, 0xfe, 0xf0, 0x41, 0xe9, 0x12,
  0x0d, 0xf0, 0x0b, 0xdd, 0xfd, 0x2b, 0xfa, 0xf8, 0xd9, 0xf8, 0xf6, 0xbc,
  0xb7, 0xd9, 0x1c, 0xe9, 0xf5, 0x10, 0xe6, 0x03, 0xff, 0xcc, 0x0a, 0xef,
  0xeb, 0x45, 0x1c, 0xe4, 0xd5, 0xbc, 0x12, 0xe4, 0xec, 0x1b, 0xf2, 0xfc,
  0xf1, 0xd7, 0x34, 0xdb, 0x03, 0x19, 0xdf, 0xfc, 0x0a, 0xe2, 0xc8, 0xe8,
  0x25, 0xd6, 0x13, 0x0c, 0xf1, 0xe0, 0xcb, 0xf0, 0x12, 0xf6, 0x0a, 0xf8,
  0x06, 0xe9, 0x1a, 0x01, 0xe1, 0xb5, 0x3b, 0x12, 0xec, 0x21, 0x8a, 0x09,
  0xfb, 0xcc, 0x03, 0x2a, 0x19, 0x12, 0x0f, 0x1b, 0x1f, 0xe8, 0x27, 0xe6,
  0x14, 0xec, 0xc1, 0xf9, 0xe7, 0x30, 0x10, 0xe4, 0xd8, 0xd6, 0xf7, 0xef,
  0x1f, 0xec, 0x18, 0xdf, 0x2f, 0xff, 0x29, 0x11, 0x1c, 0x07, 0x01, 0xc3,
  0xf5, 0xf5, 0xfb, 0xff, 0x17, 0xf8, 0xde, 0x12, 0xdd, 0xd0, 0xe8, 0x0d,
  0x17, 0xd8, 0x17, 0x35, 0x1c, 0xda, 0x2d, 0x0a, 0x20, 0x0a, 0xec, 0xf9,
  0x13, 0xee, 0x2d, 0x1a, 0x0e, 0xec, 0xf4, 0x00, 0xdc, 0xbb, 0xd4, 0x08,
  0x00, 0xf9, 0x19, 0x2a, 0xe3, 0x3c, 0x7f, 0xc7, 0xec, 0x2b, 0xe9, 0xeb,
  0x03, 0x17, 0xd1, 0xfc, 0x05, 0xf3, 0xf2, 0xdb, 0x04, 0x14, 0xce, 0xfb,
  0xfa, 0xd3, 0x2b, 0x08, 0xfe, 0xf9, 0xd8, 0x1f, 0xf6, 0xef, 0xfb, 0x24,
  0x26, 0x0e, 0x16, 0xe0, 0x25, 0x3d, 0x01, 0xe4, 0x23, 0x29, 0x16, 0xca,
  0xf6, 0xcf, 0x16, 0xee, 0xf0, 0xde, 0x28, 0xfb, 0xee, 0x44, 0x00, 0x27,
  0x1c, 0xe9, 0x08, 0xc0, 0x17, 0xd5, 0x30, 0xf0, 0x13, 0x19, 0x11, 0xea,
  0x19, 0x11, 0x16, 0xe8, 0xec, 0xf7, 0x1e, 0xf8, 0xe7, 0x18, 0xfa, 0xc9,
  0x14, 0x2d, 0x3b, 0x1b, 0xf9, 0xd5, 0xc9, 0xe8, 0xed, 0xe6, 0x0c, 0x1d,
  0xea, 0xde, 0x0a, 0xe8, 0x13, 0xc3, 0x55, 0xdb, 0xb3, 0xe1, 0x0b, 0x0a,
  0x05, 0x1d, 0x29, 0xc5, 0x0a, 0xb3, 0xc0, 0xeb, 0xfc, 0x38, 0x42, 0x1f,
  0xcd, 0xe8, 0x13, 0xc8, 0xe9, 0xca, 0xb0, 0xe1, 0xf0, 0xd4, 0x07, 0xfe,
  0x02, 0xf5, 0xd3, 0xe2, 0x15, 0x2f, 0x18, 0xf6, 0xcc, 0xe7, 0xe2, 0x29,
  0xe9, 0x29, 0x0e, 0x2a, 0xf3, 0xd1, 0x28, 0xf5, 0xf4, 0x3b, 0x0f, 0xf0,
  0xea, 0x17, 0x38, 0x1f, 0xe7, 0x15, 0xef, 0xff, 0xf8, 0xe5, 0x81, 0xec,
  0x1f, 0x0c, 0xd5, 0x35, 0xf1, 0x2b, 0xeb, 0x1a, 0x2a, 0xf5, 0x26, 0x2c,
  0xd6, 0x14, 0x1d, 0xe0, 0xff, 0x15, 0xf9, 0x13, 0x1a, 0x1f, 0x17, 0xfa,
  0xe9, 0x1a, 0x19, 0xf3, 0x16, 0xe7, 0xa3, 0xf2, 0x11, 0xce, 0xda, 0x29,
  0xdc, 0x0a, 0xfb, 0xf9, 0x29, 0x06, 0x11, 0xfd, 0x40, 0xf0, 0xf4, 0x15,
  0xc8, 0xcc, 0x0c, 0xf2, 0x3a, 0xe0, 0x22, 0xf9, 0x0d, 0xd0, 0xe6, 0xf4,
  0xef, 0x3d, 0x32, 0x27, 0xf4, 0x49, 0x17, 0x09, 0xdd, 0x22, 0x04, 0xd2,
  0xdb, 0x0a, 0x19, 0xf3, 0x24, 0xf7, 0x1d, 0xf5, 0x0c, 0xba, 0xf7, 0x0d,
  0xe8, 0x1d, 0xea, 0x0f, 0x18, 0x1a, 0x06, 0x18, 0xd9, 0xfe, 0x2c, 0xe2,
  0xde, 0xea, 0x01, 0x15, 0x0a, 0x14, 0xe1, 0xf9, 0x0e, 0xfc, 0xed, 0xfb,
  0x40, 0x29, 0xfe, 0xf9, 0x24, 0x28, 0x2e, 0xce, 0x06, 0x2c, 0x04, 0xeb,
  0xf6, 0x0c, 0x31, 0xde, 0xce, 0xfe, 0x81, 0x06, 0x10, 0xb9, 0x06, 0x5f,
  0x05, 0xff, 0x14, 0x98, 0xdf, 0x17, 0xe7, 0xc9, 0x9b, 0xe2, 0x36, 0x17,
  0xf7, 0x00, 0x3b, 0xe6, 0x01, 0xf9, 0xf3, 0xd4, 0x27, 0xf1, 0x05, 0x22,
  0xc5, 0x2d, 0x3f, 0x18, 0x09, 0xea, 0x1f, 0x33, 0xfe, 0x02, 0xec, 0x03,
  0xe2, 0xec, 0xe0, 0xec, 0xe9, 0x37, 0x30, 0xfe, 0x25, 0x32, 0x22, 0xec,
  0xce, 0xda, 0x1c, 0xdf, 0x2a, 0x40, 0x13, 0x04, 0xb2, 0x2e, 0x60, 0x0c,
  0x19, 0x02, 0xd9, 0x11, 0x12, 0xf0, 0xf6, 0xfa, 0xfe, 0xf7, 0x1d, 0xf4,
  0x13, 0xbc, 0x11, 0xdd, 0xe6, 0x03, 0x1c, 0xa3, 0xde, 0x2e, 0x03, 0xf5,
  0x27, 0xfa, 0xa1, 0x02, 0xef, 0xff, 0x0c, 0x46, 0x0a, 0x5f, 0x12, 0x32,
  0x05, 0x10, 0xd1, 0x3a, 0x24, 0xdd, 0x1e, 0x2c, 0x39, 0x25, 0x58, 0xf5,
  0x1b, 0xb3, 0xc6, 0x98, 0x13, 0x25, 0xc6, 0x17, 0xff, 0x15, 0x25, 0xc4,
  0xe1, 0x4c, 0x23, 0x14, 0xde, 0xfa, 0x33, 0xe7, 0x18, 0x0a, 0xf2, 0xf4,
  0xe6, 0x18, 0x1c, 0xe4, 0x07, 0xd3, 0x66, 0xe8, 0xfd, 0xf3, 0xe9, 0xcc,
  0xdf, 0x2f, 0x39, 0x45, 0xed, 0xbf, 0xec, 0x03, 0xf4, 0x0c, 0x16, 0xe6,
  0xbc, 0x81, 0xc6, 0x0f, 0xe6, 0x91, 0xba, 0x2b, 0x66, 0xe5, 0x18, 0x4e,
  0x44, 0xe8, 0x00, 0xf0, 0x21, 0x0c, 0x16, 0xfb, 0xe0, 0xeb, 0xf6, 0xcb,
  0xdf, 0xd4, 0x11, 0x2f, 0x2e, 0xbc, 0x4b, 0x2e, 0x1a, 0xe2, 0xe5, 0x0e,
  0x1d, 0xce, 0xf6, 0x2a, 0x1f, 0xed, 0x39, 0xe8, 0x2f, 0x19, 0xcc, 0xf7,
  0xe1, 0x8c, 0xe5, 0x12, 0xe9, 0x34, 0x13, 0xf2, 0x17, 0x19, 0xcd, 0x17,
  0x06, 0x1c, 0xf2, 0x1b, 0xde, 0xc9, 0xf2, 0xfc, 0xbc, 0xfd, 0xbe, 0x18,
  0x1f, 0xe2, 0x07, 0xf1, 0x13, 0x30, 0x30, 0x44, 0xee, 0x16, 0x01, 0xeb,
  0x2f, 0x65, 0xd5, 0xf5, 0x15, 0xe5, 0x07, 0x0b, 0xdb, 0x1e, 0x28, 0x03,
  0xfd, 0x7f, 0x1b, 0xde, 0x02, 0x2e, 0xe0, 0xec, 0x1f, 0xd9, 0x0d, 0x1d,
  0x01, 0x19, 0x51, 0xdb, 0x08, 0x12, 0x08, 0x10, 0xff, 0x0d, 0x06, 0x1e,
  0x02, 0xdd, 0xe5, 0x00, 0xe0, 0xe7, 0x62, 0xd7, 0xf5, 0x56, 0x15, 0xfc,
  0x16, 0x1a, 0xfd, 0x10, 0x02, 0xdf, 0x34, 0x0c, 0xe0, 0xd9, 0x49, 0xf7,
  0xff, 0xfd, 0x1c, 0x23, 0x2f, 0x14, 0xe8, 0x0a, 0xed, 0xef, 0xe6, 0xcb,
  0xfc, 0x50, 0x16, 0x02, 0xf6, 0x16, 0xe5, 0xf0, 0xe2, 0x05, 0x1c, 0xff,
  0x00, 0x12, 0xec, 0x1f, 0xe9, 0xe3, 0xd6, 0xed, 0xff, 0x68, 0x0b, 0xe6,
  0xfc, 0xce, 0xf7, 0x19, 0x00, 0x27, 0xfc, 0x0b, 0x07, 0x0e, 0xff, 0x05,
  0xff, 0x5b, 0x01, 0x0f, 0xfe, 0xde, 0xe7, 0xf4, 0xf8, 0xe7, 0xf7, 0x10,
  0x0b, 0x29, 0xfc, 0x17, 0x1d, 0x24, 0x16, 0xfe, 0xd8, 0x26, 0x0b, 0xf2,
  0xed, 0x11, 0x09, 0xe6, 0xc8, 0xed, 0x0a, 0x04, 0xee, 0x1a, 0xf2, 0xda,
  0xc6, 0xe7, 0x01, 0x11, 0xed, 0x22, 0x06, 0x0e, 0xdd, 0xeb, 0x17, 0x03,
  0xde, 0x40, 0x03, 0xce, 0x09, 0xf1, 0xff, 0x05, 0xf9, 0x19, 0x07, 0x13,
  0xfe, 0xe4, 0xc2, 0x17, 0x15, 0x2c, 0x16, 0xe4, 0xd1, 0x04, 0x0e, 0xfc,
  0xfe, 0xfb, 0xee, 0x11, 0xd2, 0xfc, 0x40, 0xe2, 0x02, 0xfe, 0xfd, 0xbe,
  0xcf, 0x01, 0xf5, 0x1f, 0xfc, 0x0c, 0xfd, 0xf7, 0x08, 0xe3, 0xff, 0xfb,
  0x04, 0x7f, 0xdd, 0xfd, 0xfa, 0x19, 0xe2, 0xf0, 0xe3, 0x08, 0x18, 0x0e,
  0x22, 0x11, 0xc0, 0xd4, 0xd8, 0xc4, 0x00, 0xe7, 0xfd, 0xb8, 0xc8, 0xc4,
  0xe4, 0xe5, 0x0d, 0xfb, 0x65, 0xe7, 0xe4, 0x13, 0x44, 0xe7, 0xda, 0x31,
  0xeb, 0xf4, 0x36, 0xe0, 0x10, 0xe6, 0x3e, 0x16, 0xa0, 0x0d, 0xdd, 0x1d,
  0x34, 0xb5, 0xd2, 0x33, 0x33, 0x15, 0xf5, 0x30, 0xc9, 0xde, 0xeb, 0xea,
  0x1c, 0x0f, 0xbf, 0x7a, 0x04, 0x49, 0x09, 0x16, 0x27, 0x0e, 0xd8, 0x51,
  0x3b, 0x1c, 0xa5, 0x1f, 0x10, 0x04, 0x4f, 0xc9, 0xc7, 0x3a, 0xe0, 0x43,
  0x2e, 0xf8, 0xd7, 0x23, 0xfa, 0xc9, 0xf9, 0xd3, 0x29, 0xc2, 0x81, 0x17,
  0xee, 0x24, 0x13, 0xb8, 0x32, 0xeb, 0xe0, 0x08, 0xd8, 0xde, 0x18, 0xa0,
  0xfa, 0xb7, 0xf7, 0xdb, 0xe0, 0x14, 0xe3, 0xad, 0x27, 0x0f, 0x60, 0x09,
  0x1b, 0xe6, 0x8b, 0xee, 0xe3, 0x4f, 0x16, 0xd7, 0x21, 0xfb, 0xd5, 0xf7,
  0xd2, 0xd3, 0xe3, 0xeb, 0x21, 0xf6, 0x23, 0x1a, 0xf8, 0x15, 0x29, 0xd0,
  0x49, 0xe5, 0xad, 0xa6, 0xa9, 0x3b, 0xc0, 0x23, 0x36, 0x35, 0x59, 0x1b,
  0x3f, 0xb4, 0xe6, 0x3f, 0xdd, 0xc4, 0x41, 0xfa, 0x31, 0x52, 0xb7, 0x28,
  0x19, 0xde, 0xe2, 0x94, 0x36, 0xa7, 0x9f, 0x24, 0xea, 0xa6, 0x0e, 0x26,
  0xd5, 0xa8, 0xaa, 0xf9, 0xc4, 0x18, 0xed, 0x92, 0xa3, 0xb2, 0x32, 0x12,
  0x42, 0x34, 0x95, 0x15, 0x99, 0xff, 0xd2, 0xef, 0xea, 0xef, 0x16, 0xf8,
  0x10, 0x2f, 0x16, 0x38, 0xe7, 0xaa, 0xfc, 0xdc, 0xa4, 0xb1, 0xf1, 0xff,
  0xa2, 0x0b, 0x25, 0xc9, 0x3d, 0x07, 0xd1, 0x8f, 0x09, 0x52, 0xfa, 0x11,
  0x28, 0xe0, 0xd4, 0x81, 0xa0, 0x19, 0x20, 0xb1, 0xaa, 0x35, 0xdf, 0xc3,
  0xe3, 0xbd, 0xce, 0x49, 0xf2, 0x90, 0x39, 0x23, 0xe4, 0xc9, 0xe9, 0x16,
  0xfd, 0xd0, 0x2c, 0xa8, 0x85, 0x2b, 0x9d, 0x07, 0x52, 0xaa, 0xfd, 0xa2,
  0xfb, 0xc1, 0x9f, 0xe1, 0xa6, 0xc9, 0xaf, 0x3f, 0xa7, 0xee, 0xed, 0x35,
  0x97, 0x2a, 0xd3, 0xae, 0xb8, 0xdf, 0x06, 0xb7, 0xd6, 0xa4, 0xf3, 0xc7,
  0xda, 0x60, 0xba, 0x04, 0x13, 0x16, 0xeb, 0x14, 0x28, 0x34, 0xeb, 0xf2,
  0xd1, 0x24, 0xbd, 0x09, 0x94, 0x05, 0xd8, 0x30, 0x25, 0xd7, 0xd9, 0xc8,
  0xb7, 0xa5, 0x0b, 0xdb, 0x62, 0x0c, 0x13, 0x08, 0xbd, 0xbd, 0xde, 0x9d,
  0x3d, 0x23, 0xfa, 0x37, 0x1b, 0xed, 0xf5, 0x1f, 0xe9, 0xe4, 0xa5, 0xb7,
  0x29, 0x19, 0x17, 0xf8, 0x3b, 0x21, 0xfb, 0x99, 0x91, 0x2f, 0x31, 0xdf,
  0xe6, 0x39, 0x21, 0xad, 0xaf, 0x55, 0x2d, 0xd3, 0xf6, 0x3f, 0xb1, 0x0a,
  0xba, 0x10, 0x25, 0x86, 0x18, 0x2d, 0xc4, 0xc8, 0x33, 0x9f, 0xb2, 0x27,
  0x95, 0xad, 0x9a, 0xc5, 0xac, 0x90, 0xb0, 0x08, 0x99, 0xa6, 0x1f, 0x9e,
  0xba, 0x5f, 0xc4, 0x9f, 0x90, 0xf3, 0x38, 0xbc, 0x0b, 0xe8, 0xc1, 0xf8,
  0xcc, 0xbc, 0xd3, 0x30, 0x97, 0xbf, 0xd2, 0x03, 0x9c, 0x99, 0x18, 0xd3,
  0xf1, 0xe1, 0x12, 0xd6, 0xbf, 0x86, 0x97, 0x03, 0xc0, 0x1b, 0xdd, 0x1e,
  0xb2, 0x2f, 0xe9, 0xff, 0xd6, 0xbd, 0xd3, 0xc4, 0x2c, 0x08, 0x1e, 0x81,
  0x0f, 0xa1, 0x20, 0x4d, 0x37, 0xe0, 0xbd, 0xb7, 0x4b, 0x44, 0xc1, 0xe8,
  0x35, 0xee, 0x50, 0x2f, 0x0a, 0xf2, 0x0b, 0x0d, 0xfa, 0xe7, 0x00, 0xca,
  0xfa, 0xea, 0xfa, 0x1a, 0x02, 0xfe, 0xc0, 0xd2, 0xfd, 0xf3, 0x45, 0xc5,
  0xca, 0xe8, 0x08, 0xdd, 0xaf, 0x13, 0x32, 0x24, 0x19, 0x2d, 0xdb, 0xd4,
  0x15, 0x2c, 0xec, 0xfe, 0x00, 0xf7, 0x40, 0xc8, 0x40, 0xe9, 0x07, 0xe7,
  0xb7, 0xe3, 0xc5, 0x46, 0xd4, 0xdf, 0xfb, 0xb4, 0x1e, 0xfe, 0x41, 0xdc,
  0xf6, 0x12, 0x19, 0xfd, 0xf0, 0xfe, 0xd5, 0xff, 0x23, 0x0a, 0xdb, 0xdf,
  0xf1, 0x3c, 0x2d, 0xf1, 0x03, 0xc8, 0x22, 0x27, 0x08, 0xf4, 0xe1, 0x02,
  0x13, 0x1c, 0x0c, 0xe2, 0x27, 0xf2, 0xe6, 0xce, 0xf0, 0xe9, 0xff, 0x00,
  0xe2, 0x3a, 0x1d, 0x09, 0x0f, 0x31, 0xf4, 0x49, 0x39, 0x21, 0x35, 0xd4,
  0xc6, 0x34, 0xdc, 0x37, 0x0f, 0x23, 0x21, 0x48, 0xe7, 0x26, 0x24, 0x2f,
  0xa3, 0xd5, 0x2a, 0xfc, 0xb9, 0x1a, 0x14, 0x15, 0xf5, 0xcf, 0x44, 0x0a,
  0xd6, 0x39, 0x81, 0x18, 0x22, 0x4e, 0x16, 0x09, 0x0d, 0xb0, 0x50, 0xf8,
  0x3f, 0x42, 0xf5, 0xe2, 0x20, 0x27, 0x0a, 0x2d, 0x0d, 0xfa, 0x13, 0x28,
  0x22, 0xd0, 0xe7, 0x16, 0xe7, 0xfd, 0x21, 0xe2, 0x25, 0xce, 0xeb, 0x12,
  0x01, 0xe3, 0x11, 0xf7, 0xec, 0x12, 0x00, 0x19, 0x05, 0x09, 0xcc, 0xd3,
  0x0b, 0x07, 0xe9, 0xde, 0xe7, 0x12, 0xf7, 0x1d, 0xf3, 0x08, 0xf4, 0xd3,
  0xd1, 0xeb, 0xf2, 0xef, 0xe7, 0xe0, 0xf1, 0x1b, 0xfb, 0x1b, 0x22, 0x01,
  0xf9, 0xf8, 0x30, 0xec, 0x16, 0x1b, 0x15, 0xe7, 0x0c, 0x19, 0x0a, 0x2b,
  0x13, 0x1e, 0x0a, 0xe9, 0xee, 0x02, 0xfa, 0x0d, 0xfb, 0x0c, 0x3f, 0x17,
  0xef, 0x31, 0x16, 0x0d, 0xf9, 0xe4, 0x15, 0xbb, 0xef, 0x17, 0x1e, 0xf5,
  0x07, 0xef, 0x01, 0x1c, 0xfa, 0x19, 0x22, 0xf8, 0xe7, 0x08, 0x17, 0x1a,
  0x04, 0x00, 0x0d, 0x1c, 0x0a, 0xe8, 0x0e, 0xf9, 0xe6, 0x26, 0xf0, 0xf0,
  0xe9, 0xcd, 0xe9, 0xf6, 0x05, 0xff, 0x27, 0xf9, 0x27, 0xf3, 0x81, 0x18,
  0xfb, 0xd4, 0xc5, 0xee, 0xda, 0xe6, 0x1e, 0x00, 0x08, 0xe3, 0x31, 0x1e,
  0x4b, 0xf6, 0x29, 0xdb, 0x1c, 0x81, 0x37, 0x38, 0x05, 0x0a, 0x29, 0xf1,
  0xeb, 0xf8, 0x16, 0x17, 0x15, 0x17, 0xc5, 0x21, 0x0e, 0xd9, 0x0e, 0x38,
  0xf9, 0xf0, 0x45, 0xf5, 0xe8, 0xf7, 0x13, 0xe2, 0xe8, 0x04, 0x43, 0x0d,
  0x01, 0x60, 0x1a, 0x42, 0xf3, 0x12, 0xe0, 0x23, 0x3a, 0x30, 0xee, 0x2a,
  0xf1, 0x35, 0xf2, 0xc5, 0xcc, 0x20, 0xe7, 0xd7, 0xe9, 0xd3, 0x2a, 0xf9,
  0xe0, 0xdb, 0xf9, 0xef, 0xee, 0x05, 0x08, 0xd7, 0xf5, 0xf3, 0xe2, 0xe6,
  0x06, 0x07, 0xd9, 0xde, 0xdf, 0x09, 0xea, 0x06, 0x15, 0x29, 0x29, 0x20,
  0xe8, 0xf2, 0x0e, 0x33, 0x10, 0xb5, 0x13, 0x40, 0xe3, 0x15, 0xd8, 0xef,
  0xe2, 0x3e, 0x05, 0x0c, 0xe4, 0xff, 0x1b, 0x16, 0xe0, 0xf5, 0xfa, 0x32,
  0x2c, 0xf8, 0xf2, 0xf4, 0xd5, 0x2a, 0x40, 0x2c, 0x24, 0x1e, 0xf3, 0x1e,
  0xe5, 0xef, 0xf4, 0xda, 0xe8, 0x07, 0x1e, 0xfb, 0xf2, 0xb6, 0xdb, 0xbe,
  0xff, 0x04, 0xf1, 0xc8, 0x02, 0xdb, 0xc1, 0x2d, 0xd7, 0x35, 0x09, 0x17,
  0x14, 0xf2, 0xe6, 0x16, 0xae, 0xda, 0xff, 0xff, 0x04, 0x00, 0x00, 0x00,
  0x80, 0x00, 0x00, 0x00, 0x11, 0x00, 0x00, 0x00, 0x0a, 0x00, 0x00, 0x00,
  0xfa, 0xff, 0xff, 0xff, 0x12, 0x00, 0x00, 0x00, 0xf7, 0xff, 0xff, 0xff,
  0x04, 0x00, 0x00, 0x00, 0xe9, 0xff, 0xff, 0xff, 0xec, 0xff, 0xff, 0xff,
  0xf6, 0xff, 0xff, 0xff, 0x04, 0x00, 0x00, 0x00, 0xfb, 0xff, 0xff, 0xff,
  0xf4, 0xff, 0xff, 0xff, 0xf1, 0xff, 0xff, 0xff, 0xfc, 0xff, 0xff, 0xff,
  0xfe, 0xff, 0xff, 0xff, 0x0d, 0x00, 0x00, 0x00, 0x01, 0x00, 0x00, 0x00,
  0x02, 0x00, 0x00, 0x00, 0x0c, 0x00, 0x00, 0x00, 0x01, 0x00, 0x00, 0x00,
  0x03, 0x00, 0x00, 0x00, 0x0a, 0x00, 0x00, 0x00, 0x01, 0x00, 0x00, 0x00,
  0x0a, 0x00, 0x00, 0x00, 0x05, 0x00, 0x00, 0x00, 0x0b, 0x00, 0x00, 0x00,
  0xfb, 0xff, 0xff, 0xff, 0xe4, 0xff, 0xff, 0xff, 0xe6, 0xff, 0xff, 0xff,
  0x0b, 0x00, 0x00, 0x00, 0x04, 0x00, 0x00, 0x00, 0x04, 0x00, 0x00, 0x00,
  0x3a, 0xdb, 0xff, 0xff, 0x04, 0x00, 0x00, 0x00, 0x00, 0x24, 0x00, 0x00,
  0xad, 0x23, 0xc9, 0x14, 0x5f, 0xd8, 0xc1, 0x64, 0xe2, 0x01, 0x4d, 0xfc,
  0xb4, 0x4a, 0x5d, 0x0d, 0xe4, 0xc1, 0x46, 0xc9, 0x3f, 0xae, 0xd8, 0x5c,
  0x3c, 0xf3, 0xea, 0x9f, 0x0a, 0x68, 0x1a, 0xc0, 0x0d, 0xbb, 0x16, 0xe2,
  0x8f, 0xcc, 0xde, 0x4e, 0x09, 0xb2, 0x50, 0x0a, 0xa8, 0x03, 0x19, 0xbe,
  0xc5, 0xb8, 0xa9, 0x97, 0xf5, 0x48, 0xcf, 0xf7, 0xb2, 0xa7, 0xa9, 0x6e,
  0x31, 0xdf, 0xa7, 0xb0, 0x9b, 0x3e, 0x07, 0xea, 0x1c, 0x8e, 0x42, 0xe5,
  0xfa, 0x02, 0x44, 0x46, 0x51, 0x27, 0x51, 0x01, 0xbb, 0xa5, 0xed, 0xc1,
  0xec, 0xbe, 0x01, 0x9f, 0xd2, 0xe5, 0xc9, 0x22, 0x2d, 0x12, 0xf1, 0x16,
  0xeb, 0xbf, 0x19, 0x05, 0xd2, 0x92, 0x4f, 0xd1, 0xba, 0xb7, 0xd4, 0x29,
  0xe0, 0xc3, 0x1c, 0xb1, 0x04, 0xda, 0xa1, 0x41, 0xc2, 0x61, 0x2a, 0xab,
  0xab, 0xcc, 0x33, 0x66, 0xfe, 0xfb, 0x03, 0x50, 0x3c, 0x5b, 0xd5, 0x07,
  0x27, 0xed, 0xa8, 0x94, 0xc4, 0x1a, 0xd1, 0xcd, 0x3f, 0x8e, 0x17, 0xee,
  0xe3, 0xbe, 0x43, 0x3d, 0xf8, 0xcb, 0xf3, 0xc6, 0x2a, 0x9d, 0x83, 0x93,
  0xf6, 0x16, 0x32, 0xd7, 0x37, 0xa6, 0x5d, 0x2d, 0x94, 0xb3, 0x4f, 0x62,
  0x84, 0xc5, 0x25, 0x56, 0xdb, 0xd5, 0x9b, 0xe4, 0x54, 0x18, 0x85, 0x9d,
  0x85, 0x4d, 0xbf, 0x03, 0x52, 0xf8, 0xf0, 0xdc, 0xaf, 0xff, 0x5c, 0x38,
  0xe3, 0x9f, 0xb9, 0x84, 0xdc, 0x92, 0x3e, 0x22, 0x5e, 0x9f, 0x4a, 0xf4,
  0x54, 0xbd, 0x22, 0xc9, 0xb0, 0x11, 0x5a, 0x19, 0x1f, 0xbc, 0x34, 0xbd,
  0x19, 0xb5, 0xff, 0x08, 0x1b, 0xcb, 0xde, 0x2e, 0xb2, 0xa6, 0xde, 0x04,
  0xbb, 0x43, 0xed, 0x00, 0x47, 0xb3, 0x34, 0x3a, 0xdd, 0x26, 0xc0, 0xea,
  0x03, 0xf9, 0x35, 0xfc, 0x8f, 0xf2, 0x2d, 0x50, 0x8e, 0x53, 0x81, 0xcc,
  0xa1, 0xc1, 0x51, 0xa9, 0xa2, 0x1c, 0xf6, 0x25, 0x4d, 0x09, 0x56, 0x46,
  0xde, 0xbd, 0x95, 0xbe, 0xcb, 0x3a, 0x1d, 0x3f, 0xed, 0xac, 0x3e, 0x61,
  0xe9, 0x8c, 0xd9, 0x04, 0x39, 0x54, 0xb6, 0x39, 0x23, 0x98, 0x28, 0x03,
  0x20, 0x0e, 0x2c, 0x12, 0xba, 0x0b, 0x00, 0xe0, 0xfc, 0x1c, 0x2f, 0x3d,
  0x0f, 0xdd, 0x0f, 0x13, 0xd2, 0x2c, 0xf8, 0xfa, 0x33, 0x6b, 0xeb, 0xc5,
  0x25, 0x2b, 0x3c, 0xf8, 0xfa, 0xfd, 0xea, 0x05, 0x72, 0x1d, 0x0f, 0x3c,
  0x38, 0xb6, 0x0e, 0xb7, 0xe1, 0xe9, 0xff, 0xf3, 0xa0, 0xca, 0xaf, 0x0e,
  0x16, 0x1e, 0x0d, 0x11, 0xd3, 0xf3, 0xf7, 0xdd, 0x22, 0x0e, 0x33, 0xfe,
  0xf4, 0x35, 0x02, 0x34, 0x1b, 0xd8, 0xff, 0xee, 0xf0, 0x25, 0x2b, 0xc5,
  0xba, 0xcc, 0xcf, 0xe9, 0xee, 0x02, 0x1d, 0x17, 0x01, 0xb3, 0x34, 0x40,
  0x0c, 0xeb, 0x14, 0xda, 0x0c, 0x42, 0xf0, 0xe4, 0xfd, 0x4c, 0x4b, 0xd7,
  0x00, 0x47, 0x29, 0x04, 0x24, 0xdc, 0x01, 0x14, 0x21, 0xed, 0xb0, 0x45,
  0x0c, 0x29, 0xf1, 0xde, 0x17, 0x4a, 0xd7, 0xe7, 0xde, 0xbc, 0xf0, 0xff,
  0x38, 0x08, 0x41, 0xe9, 0x12, 0x0d, 0x16, 0xfa, 0xda, 0xd9, 0x2d, 0x42,
  0xf2, 0x54, 0x2b, 0x47, 0xec, 0x38, 0x07, 0xb0, 0x47, 0x26, 0xe2, 0xe0,
  0xdd, 0x11, 0xf3, 0xe8, 0x2a, 0xf2, 0x9e, 0x33, 0x35, 0xda, 0x0f, 0x22,
  0x22, 0xea, 0xd1, 0x7f, 0x13, 0xcd, 0xa5, 0xe4, 0xf7, 0x4c, 0xda, 0xff,
  0x12, 0x38, 0x30, 0x03, 0xff, 0x17, 0xea, 0x32, 0xce, 0xfd, 0xed, 0x21,
  0x12, 0x2d, 0xeb, 0x1d, 0x24, 0x39, 0xfb, 0x0a, 0xf2, 0x22, 0xda, 0x1a,
  0x01, 0xc9, 0x04, 0xe8, 0x31, 0x2d, 0x35, 0xa6, 0xad, 0x40, 0x66, 0x14,
  0xdd, 0x10, 0x1f, 0x55, 0xf6, 0x92, 0xca, 0xb1, 0x2d, 0x32, 0x00, 0xbe,
  0xf0, 0x11, 0xcc, 0xfd, 0x25, 0xa5, 0xda, 0x27, 0xaf, 0x24, 0x16, 0xe5,
  0x32, 0x12, 0xfa, 0xc9, 0x11, 0xd0, 0xe3, 0xcb, 0x04, 0x11, 0x12, 0x36,
  0xfa, 0x35, 0x10, 0xde, 0xd9, 0x5e, 0xfd, 0xfb, 0x04, 0x81, 0x14, 0xf0,
  0xf7, 0x39, 0xd7, 0xca, 0x11, 0xfc, 0xee, 0x28, 0x4c, 0xeb, 0x24, 0xcc,
  0x41, 0x15, 0x30, 0x2a, 0x38, 0xc5, 0x0b, 0xbb, 0xd1, 0xef, 0x17, 0x37,
  0xd6, 0x09, 0x13, 0x39, 0x0e, 0xe3, 0xe3, 0xcd, 0x02, 0xfb, 0x3b, 0xf7,
  0x0d, 0x21, 0x06, 0x07, 0x15, 0x05, 0x0c, 0xd9, 0xf1, 0xe3, 0xb3, 0xd2,
  0x0b, 0xfa, 0xdd, 0xff, 0x20, 0xff, 0x03, 0xd9, 0x00, 0xe4, 0x27, 0xf1,
  0xe8, 0x04, 0xb5, 0x29, 0x15, 0x24, 0xf3, 0x37, 0xaf, 0xd0, 0x1c, 0xe9,
  0xd1, 0x2d, 0x15, 0x45, 0x24, 0xc8, 0x15, 0x0c, 0x1e, 0xe8, 0x45, 0xfb,
  0xff, 0xda, 0xd0, 0x23, 0x35, 0x36, 0xf8, 0x12, 0xf0, 0x47, 0xcd, 0x09,
  0xf8, 0xdb, 0xf5, 0xe2, 0xef, 0x3c, 0x1a, 0x13, 0x02, 0xe1, 0xeb, 0x1a,
  0xfe, 0x04, 0xe9, 0xf1, 0x19, 0x29, 0x0b, 0xfb, 0xf2, 0x46, 0xea, 0xe5,
  0x10, 0x50, 0xeb, 0x47, 0xe6, 0xfa, 0x31, 0xd7, 0x11, 0xbd, 0xfa, 0x0f,
  0x1c, 0xbf, 0x29, 0xe4, 0xf8, 0xe2, 0xe9, 0xba, 0xf5, 0xf7, 0x1c, 0xdb,
  0xf4, 0xb3, 0x40, 0x42, 0xfd, 0xfe, 0xf0, 0xd5, 0x2e, 0x33, 0xe1, 0xed,
  0x17, 0x15, 0x0c, 0x15, 0x08, 0x0a, 0xe1, 0x20, 0xe3, 0x08, 0x17, 0xfc,
  0x08, 0x0e, 0x0f, 0xc9, 0xfe, 0xdb, 0x46, 0x46, 0xfb, 0xf9, 0xfc, 0x35,
  0x4e, 0xd9, 0x16, 0x26, 0xd9, 0x4f, 0x2c, 0xc6, 0x4d, 0xfa, 0x3d, 0xfd,
  0x1b, 0x20, 0x23, 0xb6, 0xec, 0xbe, 0x1f, 0xe9, 0x36, 0x81, 0xfd, 0xfe,
  0xec, 0xef, 0x27, 0xee, 0xea, 0xe7, 0x45, 0xc3, 0x10, 0xd5, 0xe8, 0x29,
  0xce, 0xfa, 0x10, 0x25, 0xb5, 0xd7, 0x14, 0x07, 0x16, 0x33, 0x0f, 0x1e,
  0xc8, 0x05, 0xe9, 0xf2, 0xf2, 0x08, 0xda, 0x39, 0x15, 0x1b, 0xbf, 0xd2,
  0x1b, 0x08, 0x23, 0xbd, 0x28, 0x5b, 0x1d, 0x1d, 0x35, 0xd2, 0x09, 0x18,
  0x20, 0xef, 0x38, 0x11, 0x1f, 0x5e, 0x5b, 0xb9, 0x40, 0xee, 0x16, 0xe0,
  0x09, 0x23, 0xd0, 0x77, 0x1a, 0x34, 0xee, 0xe8, 0xfb, 0x01, 0xdc, 0x1b,
  0x4d, 0xf1, 0x10, 0xed, 0x04, 0xbd, 0x01, 0xd6, 0xf9, 0x2a, 0xfe, 0xdf,
  0xd8, 0xee, 0x4b, 0x0c, 0xf5, 0xb5, 0xff, 0x08, 0xc2, 0xad, 0xf6, 0x11,
  0x08, 0xff, 0x23, 0x0e, 0xdc, 0x14, 0x11, 0xd8, 0xe0, 0x20, 0xd1, 0x24,
  0x10, 0xf3, 0xd8, 0x11, 0x2a, 0x0e, 0x29, 0x26, 0x1f, 0x2f, 0xf0, 0xe7,
  0x17, 0x17, 0x25, 0xe9, 0xd1, 0xbf, 0x50, 0xcd, 0x2c, 0x20, 0xcc, 0x4e,
  0x26, 0xb6, 0x39, 0x91, 0x10, 0x4b, 0x37, 0xcd, 0xc6, 0x24, 0x43, 0xd6,
  0x02, 0x36, 0xa7, 0xf3, 0xc9, 0x91, 0x15, 0xe7, 0xf3, 0x09, 0xc9, 0x94,
  0xf9, 0x31, 0x15, 0x0d, 0x43, 0xbd, 0x57, 0x7f, 0x34, 0x0e, 0xdc, 0xa1,
  0x4d, 0x1f, 0x31, 0x1d, 0x03, 0xdd, 0xd0, 0xbd, 0xfa, 0xdb, 0xd7, 0x36,
  0x5d, 0x0f, 0xc3, 0xf6, 0xaf, 0x27, 0xc3, 0xc6, 0x9d, 0x04, 0x35, 0xd7,
  0xfe, 0xc6, 0x08, 0xde, 0x9b, 0x3e, 0xcf, 0x05, 0x20, 0x9e, 0xff, 0x0c,
  0xd5, 0xb1, 0x0b, 0xb8, 0xc7, 0xd6, 0x38, 0xb6, 0xb1, 0xf6, 0xeb, 0x23,
  0xd3, 0x08, 0x04, 0xd1, 0x31, 0xb1, 0x0c, 0xb4, 0x97, 0x44, 0x94, 0x3e,
  0xf9, 0xd2, 0x27, 0x4b, 0x08, 0xf9, 0xd3, 0x9d, 0x4a, 0x62, 0xc0, 0x44,
  0xda, 0xc1, 0x49, 0xd6, 0xc4, 0xa1, 0xf8, 0xe7, 0xef, 0x0f, 0xb9, 0x00,
  0x0a, 0xc6, 0x16, 0x2c, 0x17, 0x37, 0xbf, 0xcc, 0x47, 0x4b, 0x1d, 0x02,
  0xd9, 0x38, 0xdd, 0x53, 0xf3, 0xc9, 0x4b, 0xf5, 0x10, 0x29, 0xf4, 0xad,
  0x33, 0x4b, 0x11, 0xcc, 0x01, 0xbf, 0x26, 0xa5, 0x05, 0xa3, 0x09, 0xdf,
  0xaf, 0xeb, 0xd3, 0x45, 0xfa, 0xa9, 0x14, 0x13, 0x26, 0xb6, 0xb0, 0x21,
  0xca, 0xb7, 0x02, 0x48, 0x3b, 0xfe, 0xa4, 0xa9, 0x2b, 0x27, 0xbd, 0xfd,
  0x9d, 0x2e, 0x1c, 0xdb, 0x0b, 0x1b, 0xfd, 0xbb, 0x11, 0xc8, 0x1c, 0x3d,
  0x91, 0xcb, 0x9f, 0x0b, 0xa0, 0xb4, 0xec, 0x2e, 0x47, 0xd1, 0xf6, 0xa1,
  0xb1, 0xad, 0xd0, 0xec, 0x51, 0xc7, 0x31, 0x89, 0xb4, 0xfb, 0xd1, 0x46,
  0x9b, 0x00, 0x2c, 0x13, 0xad, 0x88, 0xa9, 0x58, 0xbe, 0xe5, 0x3c, 0x95,
  0xfb, 0x40, 0xc7, 0xa2, 0x20, 0x38, 0x1f, 0xd4, 0xd7, 0xa2, 0xf9, 0xa2,
  0x60, 0x28, 0x31, 0x33, 0x8b, 0x3b, 0xb8, 0xea, 0xa4, 0xdd, 0xad, 0x3b,
  0x91, 0x2a, 0x1a, 0x30, 0x5c, 0xfe, 0xd5, 0x1f, 0x25, 0xaa, 0x14, 0x8d,
  0x93, 0xf6, 0xe6, 0x94, 0xd4, 0x1a, 0xbc, 0xef, 0x5b, 0xa3, 0x8c, 0xd9,
  0x35, 0x17, 0xdc, 0x18, 0xcc, 0xe2, 0xea, 0xeb, 0x32, 0x1e, 0xd1, 0xd0,
  0xda, 0xcc, 0x04, 0x37, 0x03, 0xe5, 0xf1, 0xf9, 0x1a, 0x45, 0xe7, 0x14,
  0xde, 0x21, 0x25, 0xdd, 0x04, 0xf6, 0xdc, 0x0a, 0x30, 0x26, 0x16, 0x12,
  0xfd, 0xbd, 0xf0, 0xbf, 0x05, 0xe4, 0x28, 0x24, 0xe2, 0xdc, 0xc2, 0x0c,
  0x53, 0xfb, 0x41, 0x21, 0xcf, 0xcf, 0xdc, 0xed, 0x0f, 0xcd, 0x31, 0x24,
  0xe1, 0x1f, 0x2a, 0xf0, 0xca, 0xb7, 0x0c, 0x02, 0x1a, 0xe3, 0x19, 0xea,
  0x00, 0xc6, 0xdf, 0xf9, 0x0b, 0x0d, 0xf5, 0x09, 0x0c, 0x9e, 0x04, 0x53,
  0xcb, 0xc2, 0xeb, 0xd5, 0x13, 0x4a, 0x0a, 0x28, 0x2f, 0x19, 0x14, 0xf2,
  0xeb, 0x2c, 0x04, 0xd0, 0xd7, 0x2e, 0x04, 0x43, 0x0b, 0x19, 0x8b, 0x29,
  0xfb, 0x1d, 0xdc, 0xbd, 0x3c, 0x0c, 0x27, 0xd8, 0x1f, 0xb6, 0x27, 0x38,
  0x19, 0x48, 0xf7, 0xd3, 0x14, 0x3e, 0x53, 0xbc, 0xf9, 0xb3, 0xec, 0xf5,
  0x3e, 0x15, 0x07, 0x37, 0xfe, 0xfa, 0xec, 0x81, 0x06, 0x26, 0x04, 0x14,
  0xc1, 0x08, 0xd4, 0xd4, 0x1f, 0xe8, 0xfb, 0x34, 0xf9, 0xb7, 0x15, 0x0e,
  0x0f, 0x12, 0xef, 0x10, 0x23, 0xf9, 0xc3, 0xe6, 0x06, 0x2f, 0xdc, 0x03,
  0x13, 0x19, 0x06, 0xfa, 0xff, 0x1f, 0xf7, 0x11, 0xf9, 0x13, 0xce, 0x07,
  0x1a, 0xd4, 0x1d, 0x32, 0x2c, 0x3e, 0x2a, 0x11, 0xe2, 0x2b, 0x01, 0xe5,
  0x3e, 0xd8, 0x25, 0xd8, 0x1c, 0x3a, 0xd5, 0xb5, 0xda, 0xed, 0x4d, 0xf7,
  0xe6, 0xe4, 0x12, 0x0a, 0xfe, 0xa6, 0x12, 0xc0, 0x2b, 0x4e, 0x24, 0xde,
  0x0e, 0x05, 0xb4, 0xf4, 0x16, 0xea, 0xcb, 0x2f, 0x9d, 0xe5, 0xc1, 0x18,
  0x18, 0xca, 0x24, 0xd8, 0x01, 0xc8, 0xfa, 0xf9, 0x00, 0xbf, 0xfc, 0x3c,
  0xd8, 0x14, 0xf9, 0x34, 0x07, 0x51, 0x25, 0x0b, 0xe4, 0xc6, 0x18, 0x10,
  0xf1, 0x2d, 0xe1, 0xe7, 0xf2, 0x2d, 0xe3, 0xf0, 0x31, 0xff, 0xde, 0xc7,
  0xe4, 0xe4, 0xf1, 0xf2, 0xfb, 0xfb, 0x35, 0x0e, 0xd0, 0x1d, 0xd3, 0xe7,
  0xd5, 0x3b, 0x3d, 0x07, 0xd2, 0xf7, 0xcf, 0xd5, 0x0d, 0x14, 0xed, 0x4c,
  0x17, 0xd5, 0x13, 0x1e, 0xda, 0xf7, 0x2f, 0x32, 0xec, 0x38, 0x1e, 0x35,
  0x2a, 0xca, 0x11, 0xea, 0x2c, 0x1e, 0x0f, 0x02, 0xf4, 0x2d, 0xef, 0x02,
  0x2a, 0x3f, 0x28, 0xea, 0x01, 0x2c, 0x37, 0xf4, 0x57, 0x24, 0xfb, 0x2a,
  0x38, 0x19, 0xfc, 0xcb, 0x32, 0xea, 0x12, 0x03, 0xdc, 0xf7, 0xd0, 0x1b,
  0x45, 0xe1, 0x1a, 0x2a, 0x23, 0xf8, 0xd5, 0xfa, 0x2c, 0xf7, 0x4a, 0x01,
  0xe8, 0x04, 0x1b, 0xf2, 0xf0, 0xf9, 0x20, 0x0c, 0x28, 0x32, 0xdc, 0xe1,
  0xf2, 0xbd, 0xfb, 0x0e, 0x35, 0xdb, 0xe0, 0x21, 0x1f, 0xe6, 0xe0, 0x1f,
  0xcc, 0xd9, 0x1e, 0xf3, 0x11, 0x43, 0xfd, 0x0a, 0x28, 0x4b, 0x2d, 0x30,
  0xdb, 0x2d, 0x12, 0xd6, 0xd2, 0x31, 0xdd, 0xff, 0x13, 0x39, 0xd0, 0x28,
  0x37, 0xf6, 0xce, 0xa9, 0x13, 0x18, 0x31, 0x29, 0x0d, 0xc4, 0x04, 0x04,
  0x20, 0x06, 0x09, 0x37, 0xdc, 0xe6, 0x2e, 0xc7, 0xd3, 0xea, 0x27, 0xf9,
  0x40, 0x4a, 0x51, 0x23, 0xd4, 0xf3, 0xf3, 0x82, 0x53, 0xf9, 0xdd, 0xe2,
  0xf0, 0x1b, 0xfc, 0xce, 0x1c, 0xf0, 0xfd, 0x16, 0xdc, 0xfb, 0xe6, 0x21,
  0xef, 0xbd, 0x0a, 0x5c, 0xf0, 0xde, 0x9e, 0xff, 0xf0, 0x10, 0x1e, 0xeb,
  0x07, 0x06, 0xed, 0x14, 0x18, 0x07, 0xea, 0x13, 0x1b, 0xe4, 0xfb, 0xc8,
  0x3d, 0x3f, 0x1c, 0x2a, 0x1c, 0x07, 0x24, 0xcd, 0xe2, 0xdc, 0x1b, 0xef,
  0x12, 0xfe, 0x3a, 0xc5, 0x30, 0x3a, 0x27, 0xd7, 0xd3, 0x34, 0x61, 0xff,
  0x0c, 0xe1, 0xdd, 0x47, 0xee, 0xe2, 0x0e, 0x97, 0x12, 0x35, 0x1d, 0xfd,
  0x24, 0x08, 0xc6, 0xf3, 0x12, 0xc7, 0xdc, 0x47, 0xc0, 0xfe, 0xe7, 0x40,
  0x2d, 0xf6, 0x00, 0xd0, 0x1e, 0x04, 0x05, 0x00, 0xcb, 0x0d, 0x4e, 0x1e,
  0xbd, 0xe7, 0x48, 0x13, 0x18, 0x7f, 0xea, 0xf5, 0xe9, 0xa1, 0x08, 0xfb,
  0x3f, 0x37, 0x06, 0xc5, 0x0e, 0x47, 0xeb, 0xda, 0x04, 0xdf, 0x20, 0x1e,
  0x28, 0xca, 0xe9, 0xdf, 0x13, 0xb1, 0x41, 0xe6, 0x0e, 0x29, 0x15, 0x20,
  0xf2, 0x18, 0xf6, 0x43, 0xf8, 0x36, 0xd3, 0x27, 0x1f, 0x12, 0x04, 0x31,
  0xd3, 0xa0, 0x08, 0xb4, 0x4d, 0xfb, 0xbc, 0x9c, 0xf5, 0xf9, 0xa8, 0x67,
  0xa3, 0xac, 0xd0, 0x0b, 0xd2, 0xbc, 0x2c, 0xf3, 0xe5, 0x2d, 0x36, 0xd6,
  0x05, 0x9c, 0x53, 0xe0, 0xa1, 0xc1, 0x03, 0x5a, 0xa1, 0x9a, 0x41, 0x26,
  0x04, 0x47, 0xa9, 0xd3, 0xe4, 0x23, 0xd1, 0x5e, 0x57, 0x81, 0xad, 0x8f,
  0x36, 0xbd, 0x1d, 0xc9, 0x07, 0x4e, 0xa4, 0x9d, 0xb4, 0xba, 0x1c, 0xdc,
  0x09, 0x11, 0xcd, 0x3a, 0x22, 0xfe, 0xe6, 0x28, 0xb9, 0x07, 0x27, 0x32,
  0x56, 0x11, 0xeb, 0x3c, 0x2d, 0x07, 0x00, 0xe8, 0xa0, 0xe7, 0xa9, 0xd1,
  0x03, 0x59, 0x8c, 0xf1, 0x45, 0x24, 0x4c, 0x01, 0x3f, 0x3f, 0xac, 0xe9,
  0x26, 0x41, 0x43, 0xd9, 0x82, 0xfa, 0x42, 0x4e, 0xc2, 0xb6, 0x27, 0xa4,
  0x8e, 0x98, 0xd8, 0x06, 0x24, 0xed, 0x1f, 0x5d, 0xbf, 0x58, 0xaa, 0xc3,
  0x24, 0x22, 0xb0, 0x95, 0xde, 0xa4, 0x1a, 0x98, 0xb7, 0x97, 0x44, 0xd8,
  0x94, 0xe3, 0x51, 0xd0, 0xfb, 0x8e, 0x14, 0x99, 0x24, 0x09, 0xf5, 0xbe,
  0x48, 0xb2, 0xb2, 0x34, 0x08, 0x57, 0xee, 0xcf, 0xa0, 0x21, 0xca, 0x34,
  0x5d, 0x21, 0xc6, 0xf7, 0x44, 0x01, 0x26, 0xd1, 0x98, 0x57, 0xe2, 0x89,
  0x1b, 0x1d, 0x93, 0xd2, 0xa0, 0xc9, 0x32, 0x36, 0xa7, 0x93, 0xca, 0xfd,
  0xd0, 0xb0, 0xb5, 0x4f, 0x17, 0xf8, 0xf9, 0x1a, 0xab, 0x21, 0xf9, 0x40,
  0x97, 0x1d, 0xfc, 0x59, 0x88, 0xbf, 0x13, 0xc9, 0xd2, 0xcb, 0x25, 0x15,
  0x60, 0xdb, 0x51, 0xfb, 0xa1, 0xa9, 0xc9, 0xbf, 0x8c, 0xb4, 0xda, 0xe8,
  0x29, 0x2d, 0xca, 0x4a, 0x19, 0x5c, 0xb2, 0x1b, 0xb8, 0x1f, 0x8a, 0xdb,
  0x38, 0x1f, 0x34, 0xed, 0xa1, 0x08, 0xf5, 0xbe, 0x26, 0x24, 0x58, 0xf1,
  0x48, 0xa0, 0xa6, 0xbf, 0x8f, 0xaa, 0xaf, 0xf1, 0xca, 0x0b, 0x26, 0x24,
  0xd8, 0xfe, 0x59, 0x27, 0x53, 0xc2, 0x06, 0xec, 0xc6, 0xe6, 0x39, 0xbf,
  0x1d, 0x38, 0xd7, 0xb4, 0x23, 0x30, 0xac, 0xd1, 0xd4, 0x8a, 0xed, 0xb4,
  0x4a, 0xcf, 0x4a, 0xc8, 0xa2, 0x59, 0xf3, 0x40, 0x37, 0x17, 0xb6, 0xf8,
  0x05, 0x4a, 0xe7, 0x24, 0x43, 0x0a, 0x11, 0xfa, 0x0f, 0x25, 0x21, 0xda,
  0x22, 0x3a, 0xf2, 0x1c, 0x1a, 0xeb, 0x2b, 0xcd, 0xd9, 0xc3, 0x3c, 0x3c,
  0xfd, 0xf6, 0x09, 0x25, 0x20, 0x21, 0x0b, 0x49, 0xc9, 0xcd, 0xf9, 0xca,
  0xd6, 0x4f, 0x21, 0x36, 0x04, 0xf2, 0x2d, 0xe8, 0x46, 0x24, 0x45, 0xd5,
  0xcc, 0x15, 0xe7, 0x01, 0x36, 0x3e, 0x05, 0xec, 0xf5, 0x48, 0xa7, 0x0a,
  0xe3, 0x1a, 0x2c, 0xda, 0x24, 0x10, 0x19, 0x10, 0x16, 0x18, 0x29, 0xf6,
  0x09, 0x5c, 0x1b, 0xee, 0xf2, 0x1b, 0x18, 0xcc, 0xf1, 0x77, 0xfe, 0xd8,
  0x0b, 0x3c, 0x13, 0x2d, 0x1d, 0xc0, 0x4e, 0xdb, 0xe2, 0x1b, 0xf6, 0x05,
  0x4a, 0xf1, 0xd5, 0x32, 0xe5, 0x26, 0xf3, 0xe9, 0x01, 0xd9, 0x64, 0xbc,
  0xd0, 0x0f, 0x17, 0x08, 0xc6, 0x25, 0xfa, 0x1c, 0xe7, 0x31, 0xfd, 0xeb,
  0xfc, 0xe3, 0x18, 0xdd, 0x14, 0x13, 0x04, 0x1e, 0x2e, 0x55, 0x03, 0xc1,
  0xf7, 0xe6, 0xe1, 0xd8, 0x02, 0xde, 0x44, 0x63, 0xc8, 0x22, 0xfc, 0x1f,
  0x65, 0xba, 0x03, 0x22, 0x0c, 0x12, 0x23, 0xd5, 0xe0, 0x3b, 0x16, 0x26,
  0xf8, 0x0a, 0x3a, 0x95, 0x1a, 0xeb, 0x3f, 0x0e, 0x0d, 0xda, 0x07, 0x01,
  0xbf, 0x0a, 0x1b, 0xf9, 0x2e, 0xce, 0x0c, 0x12, 0xf3, 0x1d, 0x15, 0xef,
  0x02, 0xd6, 0xf9, 0x08, 0xf0, 0xd9, 0xeb, 0xd2, 0xfb, 0xf2, 0x37, 0x00,
  0xc6, 0x3c, 0xe1, 0xfa, 0x0c, 0xda, 0xfb, 0x22, 0x5a, 0xe7, 0xb0, 0xf4,
  0x19, 0x0b, 0x39, 0x23, 0x0e, 0x61, 0x41, 0x30, 0x42, 0x9a, 0x13, 0x3d,
  0xff, 0xff, 0xfb, 0xe7, 0x23, 0x08, 0xfd, 0xf9, 0x3a, 0x04, 0x32, 0xe6,
  0xe9, 0xef, 0x04, 0x42, 0xe9, 0x55, 0xe3, 0xf4, 0x01, 0x42, 0xb8, 0x18,
  0x05, 0xc0, 0x03, 0xe6, 0x22, 0x81, 0xbc, 0xf2, 0xf9, 0x63, 0x0e, 0x28,
  0xe3, 0x11, 0x36, 0x68, 0xf4, 0xf1, 0x0c, 0x04, 0x0d, 0x1b, 0xf7, 0x15,
  0x32, 0xfe, 0x33, 0xf5, 0xd2, 0x22, 0xe6, 0x2d, 0x45, 0xf9, 0x29, 0xec,
  0x49, 0xca, 0xcb, 0xd9, 0x48, 0x07, 0x42, 0xdd, 0x0e, 0x23, 0xda, 0x02,
  0xcd, 0x1e, 0xd7, 0x1a, 0xfe, 0xf8, 0xeb, 0xe3, 0x1f, 0xfc, 0xf8, 0xc3,
  0xf3, 0x23, 0xdc, 0x29, 0x04, 0xd8, 0x12, 0x2e, 0xd1, 0x1c, 0x3c, 0xf7,
  0x0c, 0xc9, 0xd6, 0x10, 0x1b, 0x0f, 0xdd, 0x14, 0xe0, 0xcd, 0x3e, 0x10,
  0xf7, 0xe8, 0x0d, 0xee, 0xee, 0xe8, 0xfe, 0xe1, 0x16, 0x1d, 0x49, 0xe5,
  0xd4, 0x09, 0xfe, 0x5e, 0xea, 0x2b, 0x2f, 0x05, 0xe8, 0x4e, 0xb7, 0x1e,
  0x1b, 0xf4, 0x0b, 0x10, 0x19, 0xd4, 0xfd, 0xce, 0x00, 0x04, 0x01, 0xe2,
  0x0b, 0xf2, 0x0c, 0xce, 0xec, 0x05, 0xd8, 0x02, 0xf9, 0x16, 0xfd, 0xf2,
  0xe9, 0x58, 0x17, 0xe0, 0xf8, 0xdf, 0xdc, 0xff, 0x14, 0xe6, 0xf1, 0xea,
  0x1d, 0xe6, 0xf5, 0x33, 0xee, 0xf7, 0xec, 0xd2, 0x32, 0xf1, 0x16, 0x86,
  0x1c, 0xe6, 0x5a, 0x0c, 0xd0, 0xfa, 0xea, 0x37, 0xff, 0x18, 0xf1, 0xe8,
  0xf5, 0xbf, 0xfe, 0x13, 0xf8, 0xe5, 0xdd, 0x3d, 0x2f, 0x06, 0x0a, 0xfd,
  0xdd, 0xd8, 0xea, 0xeb, 0xf7, 0x28, 0x16, 0x1c, 0xc2, 0x10, 0xdb, 0xd0,
  0x19, 0xfa, 0x18, 0x06, 0x0c, 0xf5, 0xfa, 0xe4, 0x0d, 0x43, 0xd7, 0x14,
  0x22, 0xf7, 0x08, 0xda, 0xcd, 0xe7, 0x1c, 0xc7, 0xf1, 0xd5, 0x17, 0x09,
  0xae, 0xdf, 0x03, 0x04, 0xfc, 0xdd, 0xfa, 0xea, 0xe8, 0xf7, 0xfe, 0x07,
  0xd4, 0xe9, 0x04, 0xdc, 0xea, 0x1c, 0x04, 0x13, 0xf4, 0xd7, 0xf6, 0x0c,
  0x05, 0x0c, 0xd7, 0x16, 0x00, 0xf0, 0xfa, 0xfd, 0x3e, 0x1e, 0xf7, 0xcf,
  0x2c, 0x11, 0x3e, 0xef, 0xfb, 0x3f, 0x18, 0xd7, 0xf8, 0xf2, 0xfc, 0x56,
  0xea, 0x0f, 0x11, 0xeb, 0xfc, 0x1d, 0x28, 0xc7, 0x7f, 0x01, 0x0e, 0x2d,
  0x19, 0x2e, 0xea, 0x31, 0x07, 0x26, 0x02, 0x2a, 0x0c, 0x27, 0xd5, 0xf2,
  0x3a, 0xf7, 0xe1, 0xf8, 0x21, 0x09, 0xdf, 0x17, 0x1f, 0x7d, 0x3f, 0x14,
  0xf0, 0xf0, 0x14, 0x43, 0xdf, 0xff, 0x61, 0x1b, 0x17, 0x0d, 0x1b, 0x01,
  0x19, 0xfc, 0x1f, 0x1e, 0x26, 0x2f, 0x0f, 0x34, 0x1d, 0xf1, 0xf7, 0x0b,
  0xf2, 0x1c, 0xfe, 0x0c, 0x28, 0x12, 0x2a, 0x1a, 0xed, 0xf4, 0x00, 0xcc,
  0x2a, 0xcd, 0x1f, 0x21, 0xdd, 0xf9, 0x14, 0xe5, 0xdc, 0xfc, 0x1a, 0xf4,
  0xdc, 0xbf, 0x2d, 0x1f, 0x30, 0x1c, 0xfe, 0x18, 0x09, 0x17, 0x08, 0xf0,
  0xff, 0x0e, 0xf4, 0xe8, 0x1e, 0xe9, 0xe4, 0xd0, 0x3d, 0x31, 0xd3, 0xf7,
  0x40, 0xf7, 0x0a, 0xf8, 0xf5, 0x22, 0x1e, 0x30, 0xb6, 0xcd, 0xe6, 0xef,
  0x35, 0x0f, 0x3a, 0xfd, 0xe2, 0x16, 0x0a, 0x20, 0x12, 0x10, 0x18, 0xea,
  0x11, 0x23, 0xfb, 0x18, 0xfa, 0xf1, 0x28, 0xe8, 0xdf, 0x06, 0xf5, 0xf4,
  0xba, 0xe2, 0xca, 0xe3, 0xda, 0xf6, 0xf0, 0x00, 0xf4, 0xac, 0x20, 0x1d,
  0xdf, 0x09, 0xe7, 0xb5, 0x2c, 0x1e, 0xed, 0x00, 0xe1, 0x13, 0x29, 0x24,
  0x0d, 0xeb, 0x26, 0xfe, 0x27, 0xda, 0xe0, 0x06, 0xee, 0xf6, 0xa7, 0xf9,
  0x1c, 0x2a, 0x08, 0xec, 0x26, 0x1a, 0x1a, 0xf1, 0xd2, 0xc2, 0x11, 0x08,
  0x0d, 0x3c, 0x15, 0x14, 0xd9, 0x10, 0x37, 0xd6, 0xf3, 0xb8, 0xf1, 0x18,
  0xf4, 0xf6, 0xdf, 0x42, 0x10, 0x09, 0x0a, 0xd3, 0x3c, 0xe5, 0x17, 0x1a,
  0xdf, 0x40, 0xff, 0x02, 0xf4, 0xd9, 0xd1, 0x54, 0xf2, 0xba, 0xf9, 0x12,
  0x0b, 0xf5, 0xed, 0x4e, 0xf5, 0x06, 0xa0, 0xe7, 0xf9, 0x46, 0xf4, 0x08,
  0x31, 0x2f, 0xec, 0xe8, 0x28, 0x03, 0x0a, 0x13, 0xfe, 0x00, 0x15, 0x13,
  0x3e, 0x20, 0x0d, 0x1e, 0x04, 0x2a, 0xdd, 0x0b, 0xf6, 0x2b, 0xf2, 0x0a,
  0x09, 0xe1, 0x51, 0x08, 0x23, 0x29, 0x25, 0xba, 0xc5, 0x0f, 0x17, 0x03,
  0x18, 0x14, 0xe3, 0x29, 0xe1, 0xd3, 0x0e, 0xbd, 0x02, 0x1a, 0x07, 0x10,
  0xe4, 0x01, 0xb2, 0x19, 0xe1, 0x00, 0xca, 0x3e, 0x9a, 0x1d, 0x0c, 0x06,
  0xdf, 0xf1, 0x08, 0xa7, 0x06, 0xea, 0xe6, 0x1c, 0x18, 0xde, 0x26, 0x26,
  0xc8, 0x0d, 0xef, 0xec, 0x1d, 0x7f, 0x2d, 0x17, 0xfd, 0xe1, 0x1e, 0x01,
  0x04, 0x18, 0xce, 0xeb, 0x19, 0x10, 0xf7, 0x0c, 0x17, 0xe2, 0xdf, 0x18,
  0x13, 0x0e, 0x28, 0x22, 0x06, 0xeb, 0x49, 0xf7, 0xe2, 0x19, 0xfd, 0xe4,
  0xc4, 0x1e, 0x3f, 0x28, 0xb1, 0x02, 0xee, 0xde, 0xf2, 0xfe, 0x34, 0x30,
  0x3c, 0xc7, 0xff, 0x22, 0xce, 0xe6, 0xd3, 0x14, 0xee, 0x3c, 0x39, 0x3c,
  0xe6, 0xef, 0x09, 0xed, 0x2b, 0x32, 0xcf, 0x18, 0x47, 0x59, 0xe8, 0xfd,
  0x24, 0x30, 0x41, 0x25, 0xfc, 0x04, 0x33, 0xa4, 0x6c, 0xf9, 0x20, 0x2d,
  0xf2, 0x02, 0x02, 0x19, 0xe3, 0xf3, 0xec, 0xe8, 0x91, 0x1f, 0xfe, 0xe5,
  0x35, 0x28, 0x26, 0x1b, 0xd2, 0xc2, 0xe8, 0xfa, 0x13, 0xb4, 0x0e, 0xe4,
  0xe5, 0xef, 0x3e, 0x25, 0xcd, 0xef, 0x32, 0x27, 0xff, 0x03, 0xe5, 0xc2,
  0xc3, 0xd7, 0x03, 0xe7, 0x2a, 0xe7, 0x29, 0x47, 0x20, 0x97, 0x28, 0x19,
  0x13, 0xeb, 0xdb, 0xc5, 0x0c, 0x44, 0xec, 0x25, 0x01, 0x13, 0x43, 0xf8,
  0xf9, 0x27, 0xe0, 0x14, 0xe3, 0xf5, 0x04, 0xf7, 0xf7, 0xf4, 0xb2, 0x06,
  0x32, 0x16, 0xf7, 0xba, 0x0e, 0x08, 0x09, 0x23, 0xef, 0xdd, 0x2b, 0x33,
  0xd8, 0x27, 0x2f, 0x37, 0x05, 0x54, 0x01, 0x90, 0xe9, 0xa7, 0x44, 0x4f,
  0xde, 0x1d, 0xf9, 0x3f, 0xf2, 0xed, 0xc3, 0xb4, 0x3e, 0xd2, 0xeb, 0xd1,
  0x8f, 0x39, 0x32, 0x2a, 0x38, 0xdf, 0xd8, 0x2f, 0x18, 0xd8, 0x18, 0xf0,
  0x1d, 0x10, 0xb9, 0x1d, 0x35, 0x1c, 0xc4, 0xd4, 0xd0, 0x3c, 0x30, 0x35,
  0x20, 0x2d, 0xd8, 0x1b, 0xfc, 0x35, 0xf5, 0xd7, 0xf6, 0x0c, 0x03, 0xe6,
  0x40, 0x3d, 0x0d, 0x22, 0x40, 0x2c, 0xf6, 0xe3, 0xe0, 0x41, 0xed, 0xcd,
  0x0b, 0xdc, 0x2b, 0xd4, 0x22, 0x18, 0xf0, 0xc3, 0xec, 0xd0, 0x2f, 0x08,
  0x0a, 0xf2, 0x20, 0x09, 0x06, 0xd1, 0x0a, 0xac, 0xdd, 0x6a, 0x14, 0xbb,
  0x42, 0xee, 0xb0, 0x2a, 0xfc, 0xbc, 0xcb, 0x71, 0x81, 0x36, 0x0d, 0xe3,
  0x2f, 0x09, 0x2b, 0xc6, 0x17, 0xd3, 0xcc, 0xf4, 0xf7, 0x18, 0xfc, 0x39,
  0xe9, 0x06, 0x02, 0x0e, 0xee, 0x74, 0xfc, 0x23, 0x1c, 0x9c, 0xc6, 0xdf,
  0xed, 0xf2, 0x1c, 0x90, 0x13, 0x04, 0x17, 0xc4, 0x3b, 0x3b, 0xfe, 0x08,
  0x37, 0x1c, 0x3e, 0x20, 0x14, 0xd1, 0x42, 0xe6, 0x9e, 0xfa, 0xe8, 0xde,
  0xbe, 0xf8, 0xff, 0x3d, 0xd9, 0xdf, 0x9c, 0x04, 0x2a, 0xc4, 0x10, 0x3c,
  0xd3, 0xff, 0x01, 0xee, 0xfb, 0x2a, 0xf3, 0x06, 0xfa, 0x32, 0xb8, 0x00,
  0x0e, 0x3a, 0xdd, 0x2f, 0x17, 0xe8, 0xfe, 0x1f, 0xf0, 0x48, 0xf0, 0xfb,
  0x26, 0xf0, 0x23, 0x07, 0xe1, 0xe6, 0x04, 0x54, 0x11, 0xb3, 0x11, 0xfd,
  0x05, 0xfd, 0xf0, 0x34, 0xd6, 0x2e, 0xd0, 0x20, 0x22, 0xfe, 0x25, 0xe3,
  0xcc, 0xe4, 0x06, 0x5d, 0xee, 0x22, 0x16, 0xf5, 0xe9, 0xe3, 0xf2, 0xee,
  0xdd, 0xf6, 0xf8, 0x61, 0x35, 0xf6, 0x24, 0x03, 0x0a, 0x09, 0xf2, 0x9c,
  0xf7, 0x6c, 0x0c, 0xc0, 0x11, 0xfe, 0xfa, 0x0f, 0xd9, 0x52, 0x1a, 0xd1,
  0xf6, 0x60, 0x0e, 0x2d, 0x14, 0xef, 0x4e, 0x13, 0xef, 0x00, 0x05, 0x1f,
  0x1e, 0xbe, 0xef, 0x17, 0x18, 0x24, 0x03, 0xe8, 0x06, 0x10, 0x20, 0xf1,
  0xe0, 0x06, 0xe9, 0xf7, 0x05, 0xc6, 0xf7, 0x25, 0x1f, 0x22, 0xe6, 0xce,
  0xff, 0xe1, 0x06, 0x03, 0x1e, 0xd3, 0x15, 0x1e, 0x41, 0xff, 0x05, 0xf4,
  0x13, 0xd5, 0x08, 0xaa, 0x2e, 0x50, 0x2e, 0xb6, 0xbb, 0xec, 0x2a, 0xd3,
  0xe3, 0xfe, 0xf0, 0xee, 0xc8, 0x05, 0x13, 0xc5, 0x0f, 0x56, 0xcd, 0x16,
  0xe4, 0x39, 0x1b, 0xcb, 0xdb, 0x5e, 0x7e, 0x1c, 0x3e, 0xb9, 0xdd, 0x9f,
  0x15, 0xf2, 0x20, 0xdd, 0x11, 0xcf, 0x19, 0xbe, 0x3e, 0x31, 0x07, 0x45,
  0x2e, 0x3b, 0xeb, 0xff, 0xfe, 0xd5, 0xd7, 0xe9, 0xfc, 0xe5, 0x11, 0x12,
  0xcb, 0xd4, 0x07, 0x7f, 0xda, 0xe7, 0xfe, 0x43, 0x13, 0x07, 0xbb, 0x34,
  0xdd, 0xfc, 0x08, 0x10, 0xee, 0x5a, 0x1d, 0x27, 0x2a, 0x14, 0x0c, 0xf0,
  0xec, 0xad, 0x1a, 0xe6, 0xfd, 0x48, 0x6c, 0xe9, 0x0b, 0xbc, 0x3c, 0xfc,
  0x1b, 0x26, 0xfa, 0xa3, 0xea, 0x08, 0x46, 0xc3, 0xd0, 0xdd, 0xef, 0xbc,
  0xf7, 0x1b, 0xd8, 0x2f, 0x1c, 0xeb, 0x00, 0x23, 0xe5, 0x63, 0x11, 0xe1,
  0x08, 0x08, 0x14, 0x41, 0x00, 0xf7, 0x4a, 0x28, 0x1a, 0x15, 0xe4, 0x07,
  0xff, 0xe6, 0xff, 0x0d, 0x1a, 0xe7, 0xd3, 0x0d, 0x15, 0xf1, 0xfb, 0x11,
  0x2e, 0xf6, 0xeb, 0xf8, 0x3d, 0xe7, 0x29, 0x20, 0x0e, 0xe8, 0xc8, 0x20,
  0xf0, 0x0d, 0xd5, 0xd5, 0x0e, 0x11, 0xfe, 0xf9, 0x13, 0x16, 0xd8, 0xe4,
  0xd8, 0x28, 0xde, 0xf7, 0x10, 0x10, 0x14, 0xe3, 0xf3, 0xd6, 0x0f, 0x2d,
  0x1d, 0x19, 0xd7, 0xe7, 0xe7, 0x13, 0xfa, 0x16, 0xf3, 0xe5, 0x0e, 0x06,
  0xd4, 0x37, 0xfd, 0x0b, 0xf2, 0xe4, 0xbb, 0xb7, 0x1d, 0x1d, 0x2c, 0xfc,
  0x9c, 0x14, 0xf6, 0xfb, 0x22, 0x08, 0xf5, 0x11, 0x04, 0xeb, 0x04, 0xf2,
  0xf2, 0xf2, 0xd6, 0x37, 0x00, 0x12, 0x27, 0x14, 0xfa, 0x05, 0xfc, 0x07,
  0x04, 0x27, 0xf9, 0xdf, 0xf1, 0xf1, 0x1a, 0x1b, 0x29, 0x54, 0xf2, 0x03,
  0x1b, 0x4c, 0xea, 0x24, 0x1b, 0xf1, 0x1c, 0xfd, 0x12, 0x03, 0xdc, 0xfe,
  0x1c, 0xe0, 0x14, 0xe8, 0xf9, 0x13, 0xe2, 0xf4, 0xe9, 0xe1, 0x25, 0x16,
  0xca, 0xf3, 0x1b, 0x37, 0x1e, 0xd9, 0x12, 0xe6, 0xf4, 0x48, 0xf6, 0xcc,
  0xe6, 0x12, 0x01, 0x1c, 0x02, 0xfe, 0xc9, 0x24, 0x0b, 0x10, 0xe2, 0xe4,
  0x02, 0xe4, 0xeb, 0xcb, 0x15, 0x13, 0xf8, 0x26, 0xe5, 0x00, 0x10, 0x16,
  0x08, 0x01, 0x08, 0xc3, 0xfe, 0x1b, 0x34, 0xe7, 0x0b, 0x16, 0x14, 0x03,
  0x00, 0x3c, 0x06, 0xbd, 0xe4, 0xe8, 0x24, 0x12, 0x2e, 0x10, 0xfa, 0x03,
  0xdb, 0xff, 0xf5, 0xf0, 0x15, 0xcb, 0x2e, 0xf4, 0xdf, 0xe3, 0x11, 0x24,
  0xd1, 0x07, 0x13, 0x1a, 0xef, 0xfd, 0xe0, 0x13, 0x00, 0xf4, 0x04, 0xf4,
  0xe8, 0xea, 0x0f, 0x32, 0xe1, 0x0c, 0xf2, 0x44, 0x45, 0x1d, 0x06, 0x01,
  0xe7, 0xf6, 0xf0, 0x18, 0x24, 0x24, 0x11, 0x4c, 0xfe, 0x0f, 0x1c, 0x06,
  0xde, 0xde, 0x27, 0x10, 0xe2, 0x18, 0x29, 0xc8, 0x40, 0xd3, 0xdd, 0x04,
  0x0c, 0xee, 0x17, 0x34, 0x28, 0x0f, 0x27, 0xf7, 0xeb, 0x03, 0xf1, 0xe9,
  0x21, 0x24, 0xe7, 0x02, 0xe5, 0xc0, 0x07, 0xf7, 0x03, 0x7f, 0xec, 0xfc,
  0x04, 0xe3, 0x1c, 0x23, 0x02, 0x0c, 0xee, 0xf0, 0x1c, 0xcf, 0x13, 0x47,
  0xe7, 0x07, 0x00, 0x1d, 0x0d, 0x04, 0xe8, 0x1f, 0xee, 0xd7, 0x1b, 0x17,
  0x15, 0x01, 0xf8, 0xed, 0x0f, 0x2f, 0x15, 0xe5, 0xfe, 0xf2, 0x17, 0xf2,
  0xe6, 0x11, 0x0f, 0x18, 0x40, 0xdf, 0x24, 0xcc, 0xf6, 0xef, 0xd8, 0xa9,
  0xd2, 0x1c, 0xf6, 0xe3, 0xfd, 0xef, 0x25, 0x21, 0xe3, 0x07, 0x3e, 0x0e,
  0xde, 0x1e, 0xf1, 0xfa, 0xd1, 0xf4, 0x14, 0x4c, 0xf4, 0xe2, 0x47, 0xdd,
  0x0f, 0xfe, 0x24, 0x29, 0xf3, 0x1e, 0x1b, 0x02, 0xf5, 0x16, 0x03, 0xde,
  0xca, 0xda, 0xc9, 0x2e, 0x29, 0x15, 0x11, 0xdf, 0xf9, 0x32, 0xaf, 0x00,
  0xe8, 0xf0, 0x1a, 0xf8, 0xf8, 0x3f, 0x46, 0xd8, 0xe0, 0xfc, 0xd0, 0x14,
  0x16, 0x3f, 0xee, 0x05, 0x2c, 0x2f, 0x26, 0xe3, 0xe9, 0x5a, 0xe4, 0xe0,
  0xea, 0x25, 0x29, 0x17, 0xe3, 0xe4, 0x0e, 0x0a, 0xeb, 0x00, 0xee, 0x2d,
  0x2f, 0xea, 0xfb, 0xe0, 0x01, 0x34, 0xf3, 0xec, 0xec, 0xc6, 0x33, 0x8b,
  0x02, 0xc1, 0x1a, 0x0d, 0x9a, 0xdb, 0xd6, 0x0f, 0x0b, 0x53, 0x18, 0xf4,
  0xe4, 0x07, 0x29, 0x1d, 0x08, 0xf1, 0xcb, 0x34, 0x0c, 0x22, 0xe0, 0xe8,
  0x1e, 0xd8, 0x06, 0xcf, 0xe1, 0x0d, 0x19, 0x19, 0xca, 0x2c, 0xdd, 0x07,
  0x62, 0xb0, 0x18, 0x5a, 0xdd, 0x4e, 0x2e, 0xd9, 0x2e, 0x5d, 0x0f, 0xe5,
  0xea, 0xf4, 0xf0, 0xca, 0x06, 0xd0, 0x40, 0x11, 0xf1, 0xb7, 0xf6, 0x08,
  0xe3, 0xd9, 0x02, 0x08, 0x1c, 0xcd, 0xff, 0xd8, 0xef, 0xed, 0xd4, 0x27,
  0xdb, 0xe5, 0xe8, 0xe2, 0xba, 0xf6, 0x30, 0xda, 0x02, 0x0e, 0x27, 0x1c,
  0xe5, 0x3f, 0x0b, 0xe7, 0xf2, 0xdd, 0x22, 0xf4, 0xd7, 0xf6, 0xd6, 0x81,
  0x28, 0x0e, 0x32, 0xdd, 0x0f, 0x71, 0x3c, 0x5d, 0xfb, 0xb1, 0xf5, 0x03,
  0xfc, 0x1e, 0x0f, 0x0d, 0x2d, 0x61, 0x57, 0x0b, 0x61, 0xe2, 0x32, 0xf0,
  0x22, 0x16, 0xfe, 0x3d, 0x07, 0x42, 0x0d, 0x12, 0x0d, 0x31, 0x05, 0xf6,
  0x42, 0xbc, 0xd1, 0xb1, 0xf1, 0xad, 0xb2, 0xe1, 0x05, 0x72, 0x25, 0xda,
  0xf5, 0xb8, 0x1b, 0x27, 0xf7, 0xbb, 0x21, 0x1b, 0xc2, 0x01, 0xff, 0x04,
  0x10, 0x06, 0xe9, 0xc9, 0x30, 0x17, 0x12, 0x38, 0x3d, 0x01, 0x12, 0xd0,
  0x1c, 0xda, 0x00, 0xd6, 0x4e, 0x07, 0x55, 0x1e, 0xf7, 0xf3, 0x0b, 0xe2,
  0xf0, 0xef, 0xf7, 0xfb, 0x12, 0xea, 0x03, 0xf5, 0x00, 0xf6, 0xf4, 0xf6,
  0x09, 0x0b, 0xf0, 0xec, 0xfa, 0xec, 0xf3, 0xe7, 0xd2, 0xf7, 0xee, 0xdd,
  0xe7, 0xe1, 0xc9, 0x17, 0x18, 0xea, 0xe0, 0xf4, 0x11, 0xeb, 0xcb, 0xfe,
  0x0c, 0xe9, 0x06, 0xcb, 0xf5, 0xf5, 0xf3, 0x16, 0xd8, 0x1a, 0xe1, 0x06,
  0x11, 0x1f, 0x02, 0xe4, 0xf4, 0xc4, 0xe6, 0x03, 0x10, 0xdf, 0xe7, 0x13,
  0xef, 0xd2, 0xdf, 0x2b, 0x0c, 0xde, 0x0f, 0x19, 0xf4, 0x07, 0xed, 0x41,
  0x19, 0x10, 0x38, 0x17, 0x24, 0xdc, 0xed, 0xd8, 0xc0, 0xfb, 0x08, 0xe5,
  0x24, 0xe5, 0x01, 0x38, 0x08, 0x08, 0xef, 0x18, 0xeb, 0xc7, 0xfc, 0x16,
  0x04, 0xfb, 0xf0, 0x00, 0xd3, 0x00, 0xeb, 0x06, 0xf3, 0xf3, 0xee, 0x0a,
  0xf6, 0xd2, 0xeb, 0xea, 0xf5, 0xfa, 0xe3, 0xf6, 0xf5, 0xed, 0xff, 0xf9,
  0xe0, 0xe7, 0xfd, 0x05, 0xee, 0xef, 0xeb, 0x0f, 0xe8, 0xe2, 0xd8, 0x0b,
  0xcd, 0xe7, 0xeb, 0xd8, 0xc7, 0x0e, 0xd1, 0xc4, 0xeb, 0x04, 0x2d, 0xe0,
  0x3a, 0x16, 0x21, 0xc8, 0x23, 0x4a, 0xf6, 0xf4, 0xfb, 0xac, 0x1d, 0x0d,
  0x0d, 0x4f, 0x0d, 0xed, 0x0e, 0xe6, 0xf5, 0x2c, 0x1a, 0xe7, 0xf2, 0xe1,
  0xec, 0x1f, 0x1e, 0xee, 0xa2, 0xcd, 0x03, 0x07, 0xeb, 0xe1, 0xd2, 0x7f,
  0xef, 0x25, 0x02, 0x1d, 0x17, 0xef, 0x08, 0x0c, 0xf1, 0xe9, 0x32, 0x09,
  0x0c, 0xe4, 0xd9, 0xe6, 0xe1, 0xe4, 0xec, 0x04, 0xfc, 0xde, 0xea, 0x19,
  0xdc, 0xf9, 0x10, 0xe1, 0x03, 0xfc, 0xe7, 0xff, 0xd4, 0xdf, 0xef, 0xde,
  0xee, 0xeb, 0xe9, 0x00, 0x0a, 0x05, 0x03, 0xf6, 0xf9, 0xde, 0xf0, 0xe2,
  0x0b, 0x07, 0xf3, 0x18, 0x15, 0x12, 0xe9, 0x0e, 0x05, 0xf2, 0xfb, 0xe6,
  0xee, 0x58, 0x0e, 0x3e, 0x28, 0x42, 0x1c, 0x22, 0x00, 0x59, 0x15, 0xf8,
  0x10, 0x28, 0x0f, 0xde, 0x0b, 0xff, 0xe4, 0x1c, 0x15, 0x1f, 0x0d, 0xef,
  0xf2, 0xf8, 0x14, 0x5e, 0xf8, 0x20, 0x04, 0x21, 0x40, 0xd0, 0x12, 0x0d,
  0x30, 0xf3, 0xf4, 0xcf, 0x07, 0xdc, 0x0a, 0xfa, 0x02, 0xff, 0x01, 0xf4,
  0x07, 0xed, 0x3b, 0xe9, 0x03, 0xea, 0xea, 0x28, 0xd9, 0x39, 0x32, 0x5b,
  0x31, 0xd3, 0x14, 0xe6, 0x21, 0x06, 0xfb, 0x41, 0x24, 0x47, 0xcb, 0xf4,
  0xf3, 0xf9, 0x11, 0xe8, 0x35, 0x2a, 0x2e, 0xc3, 0x03, 0x55, 0xcd, 0x3b,
  0xfe, 0x0b, 0x13, 0xaf, 0xe7, 0x34, 0xff, 0xf1, 0xd7, 0xd3, 0xa3, 0x28,
  0x35, 0xd8, 0x53, 0xc7, 0x24, 0xd8, 0xd8, 0x0f, 0x3b, 0xb7, 0x52, 0xeb,
  0x08, 0x4c, 0x37, 0xd3, 0x23, 0xca, 0xfb, 0xee, 0xe5, 0xfa, 0xd4, 0x19,
  0xcf, 0xf8, 0x05, 0xd9, 0xf8, 0x21, 0x31, 0x45, 0xea, 0xa5, 0xd1, 0x1c,
  0xc2, 0xce, 0x2a, 0xd2, 0x1f, 0x2b, 0xfc, 0x1f, 0x1d, 0x09, 0x0b, 0xfe,
  0xd8, 0x0e, 0xdf, 0xfc, 0xd3, 0x0e, 0xd0, 0x0e, 0x49, 0x25, 0xd1, 0x0d,
  0x19, 0x4a, 0xdb, 0xdc, 0x12, 0x2a, 0x11, 0x04, 0x00, 0xe0, 0x09, 0xf7,
  0xea, 0x0c, 0xff, 0xe4, 0x2d, 0xfc, 0x2f, 0xfd, 0xdc, 0xbd, 0x1f, 0x46,
  0x18, 0x4a, 0x0b, 0x59, 0xe2, 0x32, 0x01, 0xba, 0x4c, 0xe0, 0xe8, 0xed,
  0xc0, 0x13, 0x15, 0x03, 0xf5, 0x93, 0xd6, 0x1b, 0xde, 0xfa, 0xdd, 0xda,
  0x0c, 0x06, 0xeb, 0x61, 0x18, 0x1b, 0x9c, 0xec, 0xbf, 0x5a, 0xee, 0x43,
  0x2b, 0x32, 0x12, 0xea, 0xf0, 0x1e, 0xc3, 0xec, 0x0e, 0xee, 0x0f, 0x1f,
  0x33, 0x29, 0x36, 0x27, 0x3b, 0xf3, 0x1a, 0xf2, 0xdc, 0x16, 0x23, 0xd9,
  0x64, 0xc0, 0x35, 0xc4, 0x26, 0x37, 0x2b, 0xaf, 0xaa, 0x31, 0x38, 0x01,
  0x1b, 0xec, 0xcd, 0x2b, 0x02, 0xd6, 0x14, 0x9b, 0x2a, 0x5a, 0x01, 0xb1,
  0xe4, 0xf6, 0xfd, 0xcc, 0xd4, 0xd5, 0xb8, 0x0b, 0xb3, 0x36, 0x18, 0x17,
  0x50, 0x00, 0x0c, 0xc1, 0xf5, 0xbb, 0x0f, 0x0b, 0x0d, 0xbf, 0x59, 0x51,
  0xaf, 0xe5, 0x24, 0x1a, 0xdb, 0x7f, 0x4a, 0xf8, 0xf8, 0xbf, 0xdc, 0x2c,
  0x52, 0xfa, 0xf1, 0xd2, 0xf5, 0x51, 0xf2, 0x21, 0xea, 0xdb, 0x03, 0x0c,
  0x2f, 0x1e, 0xec, 0x21, 0x04, 0xd0, 0x52, 0xd4, 0xce, 0x0b, 0xd6, 0xc8,
  0xe3, 0x22, 0x53, 0x46, 0xad, 0x22, 0xbb, 0x30, 0x1d, 0x23, 0xec, 0x3e,
  0xf7, 0xc0, 0xb8, 0x42, 0x00, 0x9a, 0xd7, 0xb7, 0xc7, 0x63, 0x64, 0xd2,
  0x45, 0x14, 0xf9, 0x93, 0xda, 0xf9, 0xbb, 0x02, 0xa0, 0x58, 0xa6, 0xab,
  0xdc, 0xad, 0xe2, 0x0d, 0xa6, 0x27, 0x64, 0x59, 0xa9, 0x64, 0xc4, 0x26,
  0x8f, 0xfd, 0xa6, 0x57, 0xdd, 0xd1, 0xbb, 0xd6, 0x40, 0x22, 0x9d, 0x0b,
  0xc9, 0xb3, 0xac, 0x0e, 0x9f, 0x2f, 0x89, 0xf0, 0xaa, 0x08, 0xd0, 0xf1,
  0x5f, 0xe3, 0xa5, 0xab, 0xb5, 0x19, 0xf5, 0x58, 0x5d, 0x37, 0xaf, 0x33,
  0x0e, 0x49, 0xfb, 0x41, 0x57, 0x9a, 0xf6, 0x8a, 0x88, 0xd8, 0xa6, 0xa7,
  0x4c, 0x72, 0x28, 0xe4, 0xff, 0x30, 0x59, 0x09, 0xd2, 0xa0, 0x49, 0x3d,
  0x59, 0xe2, 0xa6, 0xc9, 0x97, 0xe8, 0x63, 0x01, 0x15, 0x0d, 0x49, 0x62,
  0x19, 0xf7, 0xc8, 0x51, 0x3c, 0xe6, 0xf0, 0x17, 0xe4, 0xef, 0xc7, 0x43,
  0xe0, 0x3c, 0x10, 0x10, 0x64, 0x2b, 0xa3, 0x11, 0xa7, 0x33, 0xb0, 0x92,
  0xd5, 0xea, 0x5d, 0x8c, 0x20, 0xcb, 0x65, 0xf7, 0xe9, 0x47, 0xb4, 0xfd,
  0xd3, 0x0e, 0xee, 0x99, 0x88, 0x3f, 0x94, 0xbb, 0xc6, 0x0f, 0xe1, 0xb1,
  0xdc, 0x22, 0x95, 0xcd, 0x0f, 0x29, 0x94, 0x9b, 0xfd, 0xb2, 0x58, 0x02,
  0x64, 0x9c, 0xdc, 0x95, 0xd3, 0xf1, 0x0f, 0x69, 0x34, 0x6a, 0xab, 0x6f,
  0xc0, 0xf3, 0xd5, 0x35, 0xdc, 0xd6, 0xac, 0x22, 0x17, 0x03, 0x21, 0x4a,
  0x8e, 0xd9, 0x41, 0xf0, 0xde, 0xb7, 0x8e, 0xa7, 0x50, 0x4f, 0x94, 0xeb,
  0x6f, 0xe9, 0xe2, 0xc9, 0x2d, 0x00, 0xab, 0xba, 0xa9, 0x48, 0xb4, 0x31,
  0x26, 0x19, 0x8f, 0xba, 0x5b, 0x4b, 0xf0, 0x41, 0x9c, 0xe5, 0x1d, 0xfe,
  0x37, 0x3e, 0xa3, 0x8f, 0x1d, 0x31, 0xa5, 0x6b, 0x0e, 0x52, 0xab, 0x48,
  0xca, 0x05, 0xb5, 0x9e, 0x38, 0x61, 0xd0, 0x1d, 0xd4, 0x2d, 0xd8, 0xb7,
  0x17, 0xa2, 0x15, 0x8a, 0x43, 0x10, 0x23, 0x81, 0x0e, 0xf5, 0x57, 0xa0,
  0x8f, 0xa0, 0x09, 0x3c, 0xc2, 0x10, 0x38, 0x45, 0x07, 0x08, 0xec, 0x8e,
  0x1c, 0x56, 0x34, 0x17, 0xff, 0xb7, 0xd5, 0xaa, 0x52, 0x0c, 0x23, 0x8e,
  0x14, 0x2e, 0x01, 0x19, 0x44, 0xda, 0x19, 0x00, 0x1f, 0x0a, 0x21, 0xf3,
  0x10, 0x02, 0x15, 0x24, 0x0a, 0xfc, 0xed, 0xdc, 0xe0, 0xf5, 0x2d, 0x0a,
  0xed, 0x1c, 0xcc, 0x19, 0x04, 0xe7, 0x15, 0x18, 0xf6, 0xc0, 0x59, 0xe1,
  0xfe, 0x17, 0x22, 0x7f, 0x2d, 0xe4, 0xcd, 0xf8, 0x28, 0x1e, 0x43, 0xef,
  0x96, 0xfe, 0xee, 0x67, 0xeb, 0x20, 0x1b, 0x04, 0x17, 0x46, 0xe0, 0xe1,
  0xfb, 0x27, 0xdf, 0x33, 0x0e, 0x2c, 0x1a, 0x20, 0x40, 0xea, 0x06, 0x21,
  0x14, 0x47, 0x22, 0x1c, 0xe9, 0xbd, 0xca, 0x11, 0xe6, 0x4c, 0x29, 0xbf,
  0x15, 0x6c, 0x0d, 0xe8, 0x25, 0xc5, 0x19, 0xff, 0xec, 0xd4, 0xce, 0xf4,
  0x05, 0x11, 0xff, 0x1e, 0x23, 0x2d, 0x20, 0xdc, 0x01, 0xc7, 0x20, 0xe3,
  0x0c, 0xe6, 0x55, 0x38, 0x0a, 0xba, 0x25, 0xf6, 0xd7, 0x62, 0x10, 0xe8,
  0x28, 0x0d, 0x0d, 0x13, 0xdb, 0xcd, 0xf5, 0x1f, 0x2a, 0xed, 0xed, 0xe1,
  0x29, 0xc2, 0xd6, 0xb5, 0x43, 0x29, 0x24, 0x48, 0xc0, 0x29, 0x31, 0xf4,
  0x25, 0xda, 0xe3, 0x28, 0xdf, 0xf2, 0x0d, 0x06, 0xd8, 0x7e, 0x15, 0x26,
  0x27, 0x20, 0x33, 0xaf, 0x19, 0x1c, 0x5b, 0x24, 0x14, 0x03, 0xff, 0x08,
  0x29, 0xe9, 0xd4, 0x02, 0x16, 0x00, 0xf3, 0x26, 0x26, 0x24, 0x2e, 0xfb,
  0xf5, 0xf7, 0x09, 0xf0, 0x26, 0x01, 0xdd, 0x1f, 0xfb, 0xe6, 0xfe, 0xe1,
  0xdc, 0x42, 0xeb, 0x08, 0xcc, 0xd8, 0xfc, 0x39, 0x53, 0x14, 0xed, 0x04,
  0x19, 0xf7, 0xdd, 0xc3, 0x27, 0x42, 0x3e, 0x46, 0xf1, 0xf9, 0x11, 0x3b,
  0xf4, 0x03, 0x42, 0x31, 0xe0, 0x10, 0x4a, 0xdf, 0x59, 0x1d, 0x21, 0x06,
  0xc7, 0x16, 0xe7, 0x21, 0x18, 0x33, 0x1a, 0xe0, 0xf4, 0x11, 0xdf, 0xcc,
  0x3c, 0x0e, 0xcd, 0x06, 0x11, 0x86, 0x02, 0x1f, 0x00, 0x50, 0x03, 0x27,
  0xd5, 0x18, 0x03, 0x52, 0x0a, 0xc3, 0x0d, 0xf2, 0xcc, 0xdc, 0x16, 0x33,
  0xbf, 0x39, 0xd0, 0x18, 0xe8, 0x11, 0xc7, 0x23, 0x1e, 0xfb, 0xe2, 0x3e,
  0xfb, 0x07, 0xd3, 0x22, 0x3b, 0xdc, 0x21, 0x0a, 0xd8, 0x2f, 0xd2, 0x13,
  0xff, 0x1b, 0xe4, 0x10, 0x2e, 0xf2, 0x25, 0x15, 0x0c, 0xf7, 0xf6, 0xc7,
  0x0c, 0x0f, 0x21, 0x17, 0xef, 0xec, 0x0b, 0xe0, 0x13, 0xea, 0xf5, 0x17,
  0x1c, 0x21, 0xde, 0x10, 0x28, 0x04, 0xdf, 0x15, 0xf6, 0xe0, 0x44, 0xf1,
  0x00, 0x11, 0x00, 0x2f, 0x1b, 0x10, 0xf9, 0xbd, 0x51, 0x15, 0x3e, 0x15,
  0xd0, 0x16, 0x07, 0xe9, 0x24, 0x33, 0xf2, 0x1c, 0x30, 0x21, 0xc4, 0xdf,
  0xec, 0x10, 0x14, 0x15, 0x1c, 0x3c, 0x1f, 0x30, 0x2d, 0xf7, 0x05, 0x33,
  0x0b, 0x48, 0x0c, 0x26, 0x0d, 0x06, 0x10, 0x10, 0x17, 0x4c, 0xf0, 0x08,
  0x3c, 0x18, 0x18, 0x34, 0xf6, 0xd0, 0xf9, 0x19, 0xf5, 0x13, 0x0d, 0x29,
  0x1e, 0x09, 0x02, 0xef, 0xe6, 0xee, 0x16, 0xe6, 0xca, 0xf0, 0x3d, 0xf9,
  0xdd, 0xcb, 0xe5, 0x13, 0xc0, 0x13, 0x02, 0x15, 0xf7, 0x7f, 0x13, 0x0c,
  0x13, 0xec, 0x1d, 0x09, 0xf9, 0xe2, 0xf4, 0x13, 0xfe, 0x0f, 0xc1, 0x21,
  0xf6, 0xde, 0xf9, 0xf0, 0xf5, 0x1a, 0x40, 0xf5, 0xbf, 0xf9, 0x28, 0xf4,
  0x3c, 0xbe, 0x1d, 0x1d, 0xe0, 0x2c, 0x3b, 0xbd, 0x1f, 0xfe, 0xed, 0x04,
  0x23, 0x35, 0x35, 0xb4, 0x27, 0x32, 0x14, 0x0b, 0x20, 0xcd, 0x09, 0xe9,
  0xc7, 0x00, 0x01, 0xf0, 0x03, 0x06, 0x02, 0xfc, 0xda, 0xf4, 0x1a, 0x0e,
  0xe9, 0xd2, 0x12, 0x1a, 0xd1, 0xe2, 0x2a, 0xef, 0xe2, 0x1d, 0x2e, 0x08,
  0xed, 0x29, 0xe4, 0xd4, 0xd3, 0x1f, 0xe6, 0x46, 0xe0, 0xf1, 0xc1, 0xd0,
  0xfe, 0xca, 0xf8, 0xe4, 0x08, 0x40, 0x12, 0x4b, 0xfe, 0xd8, 0x09, 0x01,
  0xf3, 0xf7, 0x3a, 0x09, 0x26, 0x09, 0x28, 0xcc, 0x60, 0xe2, 0xe9, 0x05,
  0xe3, 0xf6, 0xf1, 0x3c, 0xf2, 0x0c, 0xdb, 0x17, 0x0e, 0x46, 0xd2, 0xdb,
  0xf5, 0xd3, 0xff, 0xf7, 0xe0, 0x83, 0xdc, 0xe4, 0xf2, 0x58, 0x28, 0x00,
  0xe5, 0xe1, 0x03, 0x4d, 0xdc, 0x13, 0xfa, 0xd7, 0xd3, 0xe3, 0xfd, 0x48,
  0xf5, 0xed, 0xfd, 0xfd, 0x0f, 0x3f, 0xd3, 0xe4, 0x1c, 0x19, 0xe6, 0x0d,
  0x2f, 0xba, 0x04, 0x13, 0x1c, 0x22, 0x38, 0x19, 0x0b, 0xf5, 0x0c, 0xd4,
  0x06, 0x3c, 0xcf, 0x9d, 0x29, 0xc4, 0xd5, 0x30, 0xaf, 0xb7, 0xbd, 0xea,
  0xe6, 0xb6, 0x2b, 0x33, 0x23, 0x92, 0xf8, 0x64, 0xed, 0xc7, 0xd9, 0xc2,
  0x90, 0xb4, 0x33, 0x27, 0x69, 0x5f, 0x10, 0xb7, 0x3b, 0xcc, 0xd1, 0xb5,
  0x35, 0xbd, 0xf5, 0xfd, 0x49, 0xad, 0xd8, 0xa7, 0xbe, 0xc1, 0x36, 0x01,
  0x36, 0x33, 0x4b, 0xd9, 0x93, 0x9c, 0x99, 0x9e, 0x17, 0x6d, 0x3b, 0x6d,
  0xc3, 0x57, 0xdb, 0x01, 0xb5, 0x20, 0xbf, 0x97, 0xfa, 0xcf, 0x62, 0xe4,
  0x21, 0x14, 0x9d, 0xf5, 0xd1, 0xd3, 0x43, 0xb2, 0x9c, 0xd8, 0x57, 0xf7,
  0x02, 0xb8, 0x33, 0xbd, 0x96, 0x9e, 0xb7, 0xc4, 0xe2, 0xc7, 0x29, 0x1a,
  0x3d, 0x81, 0xe7, 0xfb, 0x01, 0x5b, 0x6a, 0x1e, 0xb2, 0x91, 0x4f, 0xfd,
  0xb6, 0xf2, 0xb6, 0x97, 0x4e, 0x25, 0xe3, 0x1a, 0xda, 0x13, 0x82, 0xcd,
  0x8c, 0x33, 0xcc, 0xbd, 0xa3, 0x0a, 0x04, 0xf0, 0x4a, 0x2d, 0x3d, 0xa7,
  0xe3, 0x31, 0xc8, 0xe7, 0x1f, 0xe7, 0xd1, 0x98, 0x87, 0x8c, 0x38, 0x42,
  0x9b, 0x8d, 0x8f, 0x1f, 0x11, 0x95, 0xe0, 0x88, 0x44, 0xd9, 0x3d, 0xab,
  0xc6, 0x59, 0xef, 0x8d, 0x51, 0x1a, 0x16, 0x3e, 0x89, 0xe3, 0x0d, 0xbd,
  0x45, 0xd3, 0xdd, 0x66, 0xe7, 0x21, 0xd7, 0x4e, 0xd4, 0xbc, 0x0f, 0x69,
  0x33, 0xc8, 0xeb, 0x34, 0x41, 0xca, 0x44, 0x5f, 0xdb, 0x58, 0xbe, 0x5b,
  0x0b, 0x5b, 0x8e, 0xbc, 0xe0, 0x2e, 0xd9, 0xe2, 0x59, 0xee, 0x07, 0x33,
  0x38, 0xde, 0xb5, 0x01, 0xaa, 0x9a, 0xb8, 0x25, 0x34, 0xbd, 0x3d, 0xb0,
  0x26, 0x86, 0x36, 0x2a, 0x3d, 0x1b, 0xb9, 0x0b, 0xe7, 0x25, 0x44, 0x2e,
  0xee, 0x9e, 0x61, 0x4b, 0xa0, 0x13, 0x1b, 0xdc, 0xe6, 0xe2, 0x19, 0xdf,
  0xae, 0xff, 0x1f, 0xca, 0x2b, 0x36, 0x01, 0xfb, 0x28, 0x9c, 0xd5, 0x2d,
  0xe4, 0x96, 0x16, 0x54, 0xe5, 0x28, 0x4b, 0x31, 0xa2, 0xd3, 0x3a, 0x0c,
  0x99, 0x12, 0x0e, 0xa7, 0xdd, 0x2a, 0x48, 0x24, 0x39, 0x39, 0xfb, 0x97,
  0x25, 0xe9, 0x8a, 0xc6, 0xdf, 0xf8, 0xd4, 0xf8, 0x2a, 0xce, 0x9e, 0x4f,
  0x37, 0x06, 0x08, 0x00, 0xde, 0xd4, 0x12, 0xee, 0xfa, 0xfc, 0x40, 0x2f,
  0x1e, 0xbb, 0x12, 0xf1, 0x22, 0xe9, 0xfd, 0x40, 0xd8, 0x3a, 0xea, 0xc6,
  0xf5, 0x3e, 0xfa, 0xf2, 0xdc, 0x01, 0xe7, 0xc4, 0x1a, 0x31, 0x21, 0xe8,
  0x3a, 0xb3, 0x1f, 0xaa, 0x05, 0x08, 0x31, 0xf6, 0xe1, 0xe9, 0xa1, 0x08,
  0x14, 0x09, 0x26, 0x1e, 0x02, 0xce, 0xe0, 0x0c, 0x04, 0x2b, 0x1e, 0xdb,
  0x16, 0x15, 0x3b, 0x1f, 0xde, 0xc5, 0x41, 0xe3, 0xe0, 0x0f, 0xff, 0x0c,
  0xf0, 0xd1, 0xed, 0xca, 0xfc, 0x24, 0xfc, 0x39, 0xfc, 0x81, 0xdf, 0x48,
  0xef, 0xfb, 0x25, 0xc4, 0x35, 0x24, 0xbe, 0x0e, 0xf8, 0x11, 0x29, 0x11,
  0x0c, 0x40, 0x12, 0xd3, 0xee, 0x30, 0xf4, 0x28, 0x0c, 0x1b, 0x0d, 0x1a,
  0xea, 0x15, 0xe0, 0xe6, 0x0d, 0xe5, 0x06, 0xfb, 0x1a, 0xbe, 0x3a, 0x30,
  0xe5, 0xff, 0xfa, 0xfb, 0x0d, 0x14, 0x02, 0xb9, 0x1e, 0x02, 0x24, 0x34,
  0x2d, 0xcd, 0x0d, 0xf9, 0xd8, 0x3a, 0xf4, 0xb4, 0x01, 0xeb, 0xcb, 0xff,
  0xa8, 0x0f, 0x1c, 0x13, 0xfd, 0x1c, 0x07, 0x41, 0xda, 0xea, 0x18, 0x11,
  0xe4, 0xd1, 0x24, 0x28, 0xed, 0xfd, 0xe1, 0x2d, 0xf9, 0x54, 0x0a, 0x07,
  0xe7, 0x26, 0x26, 0x12, 0x03, 0x0f, 0xc0, 0x11, 0xf9, 0x0e, 0x08, 0xd6,
  0x3b, 0x49, 0x2e, 0xe1, 0x27, 0x47, 0xf3, 0x09, 0x0a, 0xd6, 0xd3, 0xf1,
  0x0c, 0xc5, 0x30, 0x0f, 0x24, 0x06, 0xe0, 0xc3, 0xf0, 0x09, 0x59, 0x4c,
  0x07, 0x3a, 0x05, 0x2b, 0x20, 0xd9, 0x0e, 0x0f, 0xe6, 0x0a, 0xf3, 0xfc,
  0x14, 0x0d, 0xb9, 0xf3, 0xf0, 0xbd, 0xd5, 0x46, 0xce, 0x14, 0xd2, 0x0b,
  0x22, 0xdd, 0xe0, 0xd7, 0xf9, 0xc1, 0xe3, 0xcb, 0x16, 0xf9, 0x26, 0x43,
  0xc4, 0x02, 0x01, 0x2f, 0xea, 0x47, 0xff, 0x24, 0xc9, 0xaf, 0xc7, 0x22,
  0x12, 0x1e, 0xdf, 0xf4, 0xeb, 0x1f, 0x32, 0x18, 0xe2, 0xf4, 0xe2, 0xee,
  0xdd, 0xf6, 0x0a, 0xe6, 0x29, 0xcc, 0x19, 0x18, 0x11, 0x1d, 0x20, 0x08,
  0x12, 0x21, 0x32, 0xea, 0xc4, 0x0f, 0xc0, 0xd7, 0xeb, 0xfa, 0xf6, 0xf5,
  0x1a, 0xd4, 0x46, 0x2a, 0x93, 0x85, 0x9d, 0xa6, 0x97, 0x19, 0x44, 0x2a,
  0x1b, 0x00, 0xf1, 0x21, 0xe3, 0xfe, 0x01, 0x18, 0xa1, 0xa2, 0xd8, 0x32,
  0xe2, 0x02, 0x32, 0x15, 0x96, 0x9c, 0x1e, 0xa0, 0x2c, 0x25, 0x91, 0xf4,
  0x45, 0x96, 0x42, 0x1f, 0x44, 0xa0, 0x48, 0x20, 0xb6, 0xba, 0xaf, 0xa2,
  0x40, 0xc2, 0xcc, 0x25, 0xd7, 0xe4, 0xb4, 0xce, 0x54, 0x40, 0x2d, 0x50,
  0xa9, 0x9c, 0x30, 0xbd, 0xa0, 0xbd, 0xed, 0xf8, 0x2c, 0xfd, 0x65, 0x50,
  0x4d, 0x32, 0xd8, 0x67, 0xb5, 0xf4, 0x52, 0xfb, 0x3c, 0xa9, 0x47, 0x21,
  0x41, 0xf7, 0x0a, 0x36, 0x8b, 0x2a, 0x0b, 0xf3, 0x18, 0x33, 0xc7, 0x03,
  0x3e, 0xc2, 0xc1, 0x4e, 0x44, 0xce, 0x18, 0xee, 0x30, 0xf0, 0xce, 0xbd,
  0xfc, 0xc7, 0xa6, 0x27, 0xea, 0x9b, 0x3f, 0x17, 0xe9, 0xa2, 0xc1, 0x89,
  0xbb, 0xf7, 0xd3, 0xe2, 0xb7, 0x37, 0xe5, 0xa5, 0xe4, 0x3c, 0x9a, 0x81,
  0xc4, 0xda, 0x67, 0x05, 0x37, 0xdd, 0x4d, 0xe4, 0xbd, 0xe1, 0x02, 0x37,
  0x08, 0x31, 0xfa, 0x19, 0xff, 0x02, 0x9c, 0x1e, 0x3f, 0xac, 0xc0, 0x49,
  0xb4, 0x92, 0x9b, 0x08, 0xd3, 0x4d, 0xac, 0x12, 0x28, 0xc5, 0x52, 0xd1,
  0xac, 0x0f, 0x0c, 0xe2, 0x3a, 0xfd, 0xa8, 0xf3, 0x52, 0x14, 0x42, 0x98,
  0x0c, 0xe7, 0x27, 0x90, 0x3a, 0x1b, 0x92, 0xc4, 0xdc, 0xef, 0xfa, 0xc7,
  0x9a, 0x2e, 0x26, 0x2b, 0x27, 0x90, 0x12, 0xd1, 0xc7, 0x19, 0xc7, 0xa4,
  0x56, 0xe3, 0xc0, 0xd1, 0xea, 0x23, 0x57, 0x51, 0x45, 0x45, 0x15, 0xb8,
  0x4d, 0xbc, 0x96, 0x17, 0x0c, 0x30, 0xcf, 0x33, 0xaf, 0xc4, 0xc1, 0x30,
  0x97, 0x04, 0xc6, 0x3a, 0xd2, 0xe1, 0x50, 0xe5, 0xc8, 0xaa, 0xc3, 0xb8,
  0x10, 0x40, 0x8d, 0xa5, 0xd1, 0xa3, 0x4f, 0xd3, 0xf0, 0xff, 0xd0, 0xc2,
  0x1b, 0x0c, 0xfb, 0x42, 0xa1, 0xa6, 0xab, 0xd4, 0xde, 0xe7, 0x3c, 0x12,
  0x3a, 0xbf, 0xfd, 0x4c, 0x4e, 0x01, 0xd9, 0x91, 0x93, 0x48, 0x4a, 0xb8,
  0xec, 0xee, 0x55, 0x08, 0x38, 0xf0, 0xac, 0x54, 0x14, 0xd1, 0x4d, 0x25,
  0xef, 0x1c, 0xfd, 0xdf, 0x16, 0x0a, 0xeb, 0xe1, 0xf6, 0xee, 0xe0, 0x04,
  0x2e, 0x0f, 0xda, 0x11, 0x32, 0xea, 0x1d, 0xc5, 0xfa, 0xcd, 0xf6, 0x15,
  0x14, 0x27, 0xcc, 0xf3, 0x13, 0x16, 0xe0, 0x17, 0x0b, 0xea, 0x23, 0xde,
  0xd3, 0x06, 0x17, 0x28, 0x1a, 0xd9, 0xc7, 0xbb, 0x11, 0x0b, 0x34, 0x0a,
  0xdc, 0x12, 0xe1, 0x06, 0x1f, 0x37, 0x08, 0x0e, 0x12, 0x4b, 0xf8, 0x03,
  0xf9, 0x00, 0xd4, 0xf7, 0xeb, 0x15, 0x04, 0xf8, 0x24, 0x01, 0xf1, 0xed,
  0x24, 0x31, 0xf6, 0xff, 0x1a, 0x07, 0xf8, 0x14, 0x0f, 0x45, 0x11, 0xc9,
  0x20, 0x23, 0xf3, 0x25, 0xe4, 0xea, 0x02, 0x10, 0x14, 0xf4, 0xd7, 0x0b,
  0xff, 0xf8, 0x21, 0x22, 0x00, 0x2b, 0x15, 0x07, 0x02, 0xfb, 0x36, 0xff,
  0xf6, 0x03, 0x3a, 0x21, 0xf2, 0xf5, 0xf8, 0xfa, 0xe8, 0x46, 0x07, 0xd0,
  0xf5, 0xf6, 0xe6, 0x10, 0x12, 0xd3, 0xf4, 0x3a, 0x45, 0x11, 0xfd, 0xeb,
  0xe3, 0xee, 0xf1, 0xbf, 0x33, 0x05, 0x13, 0x4b, 0xee, 0x04, 0xfc, 0x06,
  0x5c, 0xdd, 0x13, 0x0b, 0xee, 0x3b, 0x36, 0xd3, 0x10, 0x3c, 0xf9, 0x02,
  0xee, 0x0a, 0x1e, 0xcb, 0xd8, 0xea, 0x45, 0x0c, 0x29, 0xdc, 0x16, 0xf4,
  0xd2, 0xf9, 0xf9, 0x03, 0x2b, 0xeb, 0x1f, 0x04, 0x19, 0x00, 0x1b, 0x37,
  0xf1, 0x04, 0x00, 0xdb, 0xde, 0xe6, 0xe7, 0xed, 0xd8, 0xf1, 0x16, 0xf3,
  0xec, 0x2b, 0xed, 0x05, 0x0d, 0xd3, 0xef, 0x2b, 0x31, 0x09, 0xed, 0xd0,
  0xff, 0xdc, 0xfa, 0xf5, 0x1c, 0x41, 0x21, 0x37, 0xfa, 0x01, 0xd8, 0x3f,
  0x22, 0x03, 0x0e, 0xf7, 0x20, 0x3a, 0x15, 0x02, 0x57, 0xf9, 0x1a, 0x03,
  0xf5, 0x0f, 0xe8, 0x40, 0x11, 0x20, 0x25, 0xb8, 0xe3, 0x1f, 0xcc, 0xce,
  0xfe, 0xd2, 0xf5, 0x0b, 0xfb, 0xdb, 0xf7, 0x0d, 0xea, 0x7f, 0x0b, 0xfa,
  0xed, 0xff, 0x08, 0x45, 0xf7, 0xc7, 0x0f, 0x06, 0xe0, 0x18, 0xf5, 0x2f,
  0xfd, 0x04, 0xe3, 0xfb, 0xf5, 0x09, 0xf5, 0x1e, 0xe6, 0xeb, 0xe2, 0x3e,
  0x1d, 0xd8, 0xde, 0x0a, 0x0d, 0x06, 0x0b, 0x0b, 0x14, 0x19, 0xf3, 0xe2,
  0x15, 0x01, 0x08, 0x02, 0xec, 0xc4, 0x1c, 0xf7, 0xe0, 0xa0, 0xc2, 0xd8,
  0xfb, 0xed, 0xdb, 0xef, 0xd3, 0xee, 0x19, 0x13, 0xc7, 0x2a, 0xe6, 0x11,
  0xc6, 0xf6, 0x09, 0xdc, 0xe4, 0xb9, 0xfc, 0x73, 0x21, 0xd5, 0x21, 0xd8,
  0x06, 0xf6, 0xda, 0xfb, 0xc2, 0xb6, 0xfc, 0xd6, 0x16, 0xbd, 0xff, 0x09,
  0xef, 0x07, 0x07, 0x6e, 0x03, 0xe7, 0xc8, 0x07, 0xcb, 0x1b, 0xab, 0xec,
  0xed, 0x17, 0xf1, 0x18, 0xfd, 0xdc, 0x24, 0xb7, 0xd7, 0x07, 0x19, 0x17,
  0xb4, 0x3d, 0xf6, 0x1d, 0x20, 0xd2, 0xd4, 0x9d, 0xea, 0x04, 0xd6, 0xec,
  0x08, 0x50, 0xbf, 0x06, 0xfd, 0xfd, 0x19, 0xf3, 0xd8, 0x06, 0xf4, 0x1b,
  0x0e, 0xe7, 0xa2, 0xf7, 0xf0, 0xf5, 0x1c, 0xe5, 0xed, 0x10, 0x03, 0x21,
  0xb5, 0xfb, 0x38, 0xf5, 0xff, 0x01, 0xec, 0x26, 0x18, 0xda, 0xc8, 0xef,
  0xeb, 0xfc, 0xcd, 0x26, 0xd8, 0xfb, 0xf0, 0x5e, 0xf3, 0x20, 0x0c, 0x24,
  0xfe, 0xea, 0x1e, 0xc4, 0x05, 0xda, 0x03, 0x0e, 0x1e, 0x08, 0xe4, 0xec,
  0x3f, 0xe2, 0xe9, 0xbb, 0xf8, 0x06, 0x20, 0xf7, 0x17, 0xf9, 0xe0, 0xf7,
  0xdf, 0x16, 0xf2, 0xaf, 0xf5, 0xe1, 0x3b, 0x06, 0x00, 0x05, 0xef, 0x27,
  0xe4, 0xcf, 0x0f, 0xd9, 0x66, 0x0a, 0x19, 0x37, 0x13, 0xce, 0xfb, 0xc0,
  0xe8, 0x14, 0x02, 0xf0, 0x25, 0xf3, 0x03, 0xf7, 0x17, 0x1a, 0x19, 0x81,
  0xf8, 0x23, 0x21, 0xdc, 0xec, 0x14, 0x18, 0xd3, 0xdb, 0x1b, 0x02, 0xdc,
  0x19, 0xeb, 0x0e, 0x2e, 0xd6, 0x4d, 0x10, 0x91, 0x1e, 0xf0, 0xe5, 0x13,
  0xfa, 0x30, 0x0f, 0x1b, 0x03, 0x20, 0x1a, 0x24, 0xe8, 0x1a, 0x3e, 0xdb,
  0xe2, 0x39, 0x13, 0xff, 0xd9, 0x4b, 0x22, 0x0a, 0x2a, 0xeb, 0x00, 0x13,
  0x31, 0x2f, 0xf2, 0x10, 0x1f, 0x35, 0xc0, 0xe6, 0x1f, 0x60, 0xe0, 0xed,
  0x1e, 0x23, 0x18, 0x48, 0x08, 0xb1, 0x0f, 0x00, 0x22, 0xf9, 0xe8, 0x15,
  0xca, 0x1f, 0x2a, 0xf1, 0xf9, 0x09, 0xf5, 0x47, 0x2a, 0xf4, 0x1a, 0x45,
  0x24, 0xff, 0x16, 0x0c, 0xf2, 0x24, 0xed, 0xf6, 0xe1, 0x01, 0xe6, 0x0a,
  0x43, 0xd9, 0xf1, 0x27, 0xb6, 0xf5, 0xcd, 0xf3, 0xdc, 0x15, 0x2c, 0x36,
  0xd3, 0x15, 0x1e, 0xf7, 0x04, 0x08, 0xd8, 0x42, 0xfc, 0x07, 0xc4, 0xcf,
  0x12, 0xed, 0x07, 0xf4, 0xfd, 0x06, 0x17, 0x06, 0x19, 0x06, 0xc0, 0xf6,
  0xf3, 0xc4, 0xff, 0x00, 0x29, 0x25, 0x35, 0x1a, 0xe6, 0x08, 0xf4, 0xe7,
  0x61, 0xfa, 0x4f, 0xd1, 0x29, 0x19, 0xf7, 0x03, 0x0e, 0xdc, 0x59, 0xff,
  0x12, 0x45, 0x33, 0xfe, 0xfc, 0x00, 0x14, 0x18, 0xfb, 0xf1, 0x11, 0x20,
  0xef, 0xee, 0xdb, 0xe4, 0xe4, 0x05, 0xd8, 0xf4, 0x36, 0x97, 0xf7, 0x2f,
  0xd4, 0x26, 0x1a, 0xce, 0xe1, 0x06, 0xfd, 0x02, 0x0d, 0x25, 0xed, 0xf1,
  0xc0, 0x35, 0x21, 0x29, 0x10, 0xfd, 0x1e, 0x09, 0xe3, 0x3b, 0x9c, 0x32,
  0xf8, 0x1b, 0x2b, 0xa8, 0x50, 0x2e, 0xdb, 0x35, 0xd6, 0xc7, 0xf9, 0x3d,
  0x28, 0x10, 0x29, 0x0e, 0xf3, 0x3f, 0x28, 0xed, 0xf3, 0xc4, 0x2c, 0xfa,
  0x03, 0xf3, 0xf4, 0xfb, 0x1d, 0xe8, 0xca, 0x81, 0x30, 0x31, 0x3a, 0x1a,
  0xf1, 0x24, 0x07, 0xfc, 0x3c, 0xf6, 0xe7, 0x02, 0x02, 0xf5, 0x17, 0xfb,
  0x1d, 0xd1, 0xcf, 0x1b, 0x0d, 0x13, 0xdd, 0xdd, 0xec, 0xfa, 0xd6, 0xf4,
  0x02, 0x25, 0x2e, 0xf2, 0x07, 0xee, 0xfc, 0x38, 0x12, 0x04, 0xf6, 0x07,
  0x19, 0x18, 0xf8, 0xe0, 0x49, 0xf9, 0x20, 0xe2, 0xfc, 0xfb, 0x01, 0xe7,
  0x29, 0xe9, 0x57, 0x1d, 0x34, 0x18, 0xd8, 0xf3, 0xff, 0xf1, 0x53, 0x1b,
  0x11, 0x15, 0x00, 0x35, 0xd9, 0xa3, 0xf7, 0xca, 0x24, 0x0e, 0xe8, 0xf1,
  0xfb, 0x36, 0xee, 0x1b, 0xda, 0xdc, 0xc1, 0x0a, 0xa8, 0x35, 0xe5, 0xfd,
  0x12, 0x0e, 0x3c, 0xee, 0x25, 0xc6, 0xeb, 0xf7, 0x1d, 0x02, 0x04, 0x3f,
  0xf9, 0x18, 0x1a, 0xe3, 0x0f, 0x7c, 0x3e, 0xeb, 0x0c, 0x8d, 0xd2, 0x08,
  0x02, 0x48, 0xcc, 0xe2, 0xf0, 0x27, 0x25, 0x16, 0x13, 0x0a, 0x05, 0x06,
  0xec, 0xc6, 0x06, 0x0d, 0xf0, 0x02, 0x0a, 0xe2, 0xdf, 0x3c, 0xf9, 0x1c,
  0x20, 0x15, 0x47, 0x2d, 0xe1, 0x42, 0xa4, 0xed, 0xe6, 0x19, 0x34, 0x34,
  0xdd, 0x26, 0xfb, 0x0a, 0x13, 0x23, 0x14, 0xe4, 0xe2, 0x30, 0xc6, 0x03,
  0xe3, 0xef, 0xde, 0xe9, 0x25, 0xdf, 0xee, 0xe1, 0x1c, 0xde, 0x20, 0x04,
  0xf8, 0x2b, 0x02, 0xef, 0xf5, 0xdd, 0x30, 0x55, 0x25, 0xf6, 0x11, 0xd3,
  0xd8, 0x4d, 0xe9, 0x28, 0x29, 0xeb, 0xf9, 0x8b, 0x53, 0xfa, 0x40, 0xe5,
  0x94, 0x04, 0xe8, 0x24, 0x33, 0x37, 0xd4, 0x19, 0x14, 0x2d, 0xdc, 0x26,
  0x22, 0xf4, 0x1a, 0x21, 0x30, 0x1e, 0xf5, 0xf5, 0x36, 0x22, 0xf6, 0xf2,
  0x25, 0x38, 0xfb, 0xcc, 0x28, 0xfe, 0xfc, 0xe8, 0x0f, 0x3b, 0x23, 0xb3,
  0x42, 0x4e, 0x21, 0x4d, 0x15, 0xf3, 0x09, 0xef, 0xe7, 0x13, 0x15, 0x23,
  0x58, 0xd6, 0x37, 0x1c, 0x1e, 0x38, 0x09, 0x24, 0x93, 0xd8, 0x31, 0xb7,
  0x13, 0xc5, 0x2e, 0x32, 0x9b, 0xfd, 0xed, 0x0f, 0x09, 0x47, 0x25, 0xc4,
  0xf7, 0x0b, 0xcd, 0xee, 0x04, 0x0e, 0xa9, 0x26, 0x23, 0x0d, 0xc0, 0x29,
  0x3b, 0xb9, 0x09, 0xb6, 0xf2, 0x08, 0x12, 0x25, 0xeb, 0xf2, 0xf2, 0xe3,
  0x59, 0xee, 0xf2, 0x18, 0xca, 0x0b, 0x39, 0xe5, 0x11, 0x2f, 0xd4, 0xdb,
  0x13, 0x39, 0x35, 0xbc, 0xce, 0x41, 0x11, 0x1b, 0x3e, 0xd3, 0x25, 0xcf,
  0xbf, 0xe8, 0xee, 0xea, 0x30, 0xea, 0xf8, 0xdc, 0xb6, 0xbb, 0x17, 0x09,
  0x17, 0xe6, 0xe3, 0x0c, 0xe8, 0xef, 0x14, 0x2a, 0x1c, 0x1a, 0x1e, 0x24,
  0xde, 0x33, 0xc8, 0xe3, 0xc4, 0xe1, 0xdd, 0x21, 0x18, 0xd4, 0xc8, 0xf1,
  0xfa, 0xcd, 0x2a, 0xf1, 0x29, 0x76, 0x2c, 0x62, 0x0e, 0xfc, 0x2f, 0x13,
  0xfb, 0xdf, 0x55, 0x2f, 0x2a, 0x29, 0x48, 0xb5, 0x2c, 0xb3, 0x1c, 0xd3,
  0xc1, 0x36, 0x01, 0x2e, 0xfa, 0x14, 0xf1, 0x20, 0x0e, 0x33, 0xb8, 0x09,
  0x47, 0xe6, 0x05, 0xe6, 0xeb, 0x81, 0xde, 0x01, 0x22, 0x5e, 0xe4, 0xfb,
  0x22, 0xce, 0x16, 0x49, 0xde, 0xd8, 0xea, 0xf7, 0xf7, 0xea, 0x1b, 0x2a,
  0x1c, 0xe9, 0xcf, 0x04, 0x0f, 0x13, 0x00, 0x2a, 0x17, 0xfc, 0xf6, 0xfa,
  0x1e, 0x98, 0xfd, 0xca, 0x4a, 0x18, 0x16, 0xf3, 0x01, 0x38, 0xbd, 0xf7,
  0xf0, 0xc9, 0xd1, 0xfa, 0x9b, 0x29, 0x05, 0x33, 0xe1, 0x15, 0xd7, 0x2f,
  0xe3, 0xd6, 0xf9, 0xec, 0x43, 0x37, 0xc5, 0x24, 0x38, 0x59, 0x1e, 0xe8,
  0xff, 0xde, 0x1d, 0x34, 0x15, 0xf2, 0xec, 0xf0, 0x54, 0x50, 0xef, 0x01,
  0x4d, 0xfb, 0x31, 0xb8, 0xc7, 0xf6, 0xef, 0xf8, 0xee, 0x19, 0xc7, 0x25,
  0x21, 0x44, 0x61, 0x1d, 0xcf, 0xfe, 0xce, 0x04, 0x22, 0xe6, 0x5a, 0x0e,
  0xc3, 0x2f, 0x02, 0xd3, 0xe3, 0xfa, 0x36, 0xe6, 0x34, 0xca, 0xdb, 0xe6,
  0x10, 0xbf, 0xeb, 0x12, 0xcc, 0xf3, 0xd0, 0x06, 0x23, 0xcd, 0xfe, 0x24,
  0xd8, 0xce, 0x29, 0x18, 0xcf, 0x0d, 0x05, 0x00, 0xed, 0x32, 0x17, 0xe1,
  0x22, 0x46, 0x10, 0x35, 0xf0, 0x1f, 0x02, 0x2e, 0xf5, 0x11, 0xdb, 0x19,
  0x38, 0x4a, 0x29, 0xd9, 0x5a, 0xdb, 0x1e, 0x4b, 0xef, 0xc5, 0xec, 0x1a,
  0xdf, 0x4a, 0xce, 0x32, 0x26, 0x47, 0x66, 0xa3, 0x10, 0xf4, 0x35, 0x4c,
  0xf1, 0x3c, 0x03, 0x03, 0x0e, 0x3c, 0xbd, 0xd2, 0x23, 0x1d, 0xe9, 0x2e,
  0x84, 0x56, 0xcd, 0xee, 0x52, 0xcd, 0xf9, 0x1d, 0x06, 0xed, 0xf5, 0xff,
  0x21, 0xc8, 0x1e, 0x22, 0x3a, 0xfe, 0xcf, 0x26, 0x00, 0x47, 0x2b, 0x1c,
  0x19, 0x41, 0xe8, 0xd9, 0x12, 0x47, 0x28, 0x29, 0x11, 0x08, 0xd6, 0x02,
  0x06, 0xe4, 0xdf, 0x1d, 0xfb, 0x33, 0xdb, 0x24, 0x44, 0x09, 0x33, 0xd8,
  0x5c, 0xbe, 0x16, 0x03, 0x23, 0xfa, 0x08, 0xd8, 0xe2, 0xc9, 0x23, 0x40,
  0xe6, 0x05, 0xdd, 0xe3, 0x2c, 0xc7, 0xbe, 0xc0, 0x15, 0x19, 0xd6, 0xb8,
  0x3d, 0xdd, 0x16, 0x26, 0x1c, 0xb3, 0xd5, 0x3a, 0x81, 0x09, 0xfd, 0x18,
  0x08, 0xd9, 0xcd, 0xec, 0xc8, 0xc8, 0xca, 0x2a, 0x02, 0x0f, 0x59, 0x54,
  0xf0, 0x1e, 0x37, 0x28, 0x32, 0x60, 0x56, 0x0d, 0xf4, 0xc5, 0xde, 0x08,
  0xdb, 0x47, 0xeb, 0xc6, 0x17, 0x4e, 0xde, 0xd4, 0x0c, 0x04, 0xeb, 0x2e,
  0xcc, 0xd3, 0xda, 0xe8, 0xef, 0xc1, 0x34, 0xbc, 0xfd, 0xfc, 0xfb, 0x19,
  0xce, 0x1f, 0x3f, 0x41, 0xd3, 0x0a, 0xda, 0x1b, 0x23, 0x11, 0xf0, 0x13,
  0x46, 0xd7, 0xe9, 0xe7, 0xe5, 0x38, 0x2f, 0xde, 0x04, 0x19, 0x44, 0x5b,
  0xd9, 0x13, 0x40, 0x25, 0xff, 0x1c, 0x19, 0x4f, 0xf0, 0x2e, 0x1e, 0xe0,
  0xde, 0xf4, 0x41, 0xdd, 0x11, 0x0f, 0x0d, 0xd5, 0x16, 0x29, 0xf3, 0xe4,
  0x28, 0x0a, 0x19, 0xbf, 0xcf, 0xf0, 0x17, 0x18, 0xbc, 0x2e, 0xff, 0x3c,
  0x74, 0x12, 0x4d, 0x12, 0xec, 0xc1, 0xf7, 0xef, 0xee, 0xe7, 0x0b, 0x30,
  0xd6, 0x13, 0x2d, 0x12, 0x02, 0xcb, 0xdf, 0x34, 0xea, 0x00, 0x07, 0x0f,
  0xe4, 0xb1, 0xe4, 0xf4, 0xfa, 0x05, 0xe6, 0xee, 0xf9, 0x96, 0xf2, 0x26,
  0x14, 0xce, 0xd1, 0xd8, 0x12, 0x33, 0x08, 0xe3, 0x3a, 0x55, 0xf2, 0x0e,
  0xc5, 0x37, 0xe5, 0xd1, 0x07, 0x0d, 0x23, 0x42, 0x1f, 0x21, 0x99, 0x01,
  0x02, 0xfe, 0xe5, 0xc9, 0x5d, 0x48, 0x0b, 0xec, 0x1f, 0xaf, 0x2e, 0xe2,
  0x31, 0x07, 0x2f, 0xf8, 0x21, 0x0d, 0x3a, 0xdd, 0xe2, 0xce, 0xde, 0x23,
  0xe2, 0x35, 0x3e, 0x5f, 0xca, 0x13, 0xf8, 0x81, 0x57, 0x03, 0x32, 0x25,
  0xbc, 0x5d, 0x1c, 0xcb, 0x36, 0xba, 0xa6, 0x09, 0x30, 0xd5, 0xc9, 0xd8,
  0x2d, 0xbe, 0x12, 0x66, 0xd5, 0xbd, 0xd8, 0x25, 0xd3, 0xed, 0x03, 0x10,
  0xf1, 0x3b, 0xd6, 0x18, 0xd3, 0x39, 0xf8, 0xf9, 0x1c, 0x43, 0xd0, 0xd5,
  0x02, 0xe0, 0xce, 0x3a, 0x41, 0xeb, 0x2c, 0xfd, 0x40, 0x13, 0x25, 0xdd,
  0x1e, 0xb7, 0x2f, 0xbc, 0x35, 0x47, 0xed, 0x9c, 0xc0, 0xe4, 0x36, 0x47,
  0xee, 0xf7, 0x20, 0xf4, 0xdb, 0x85, 0x12, 0xb8, 0xcb, 0x41, 0xd7, 0xc7,
  0x3c, 0x01, 0xef, 0xf5, 0x01, 0xb8, 0xf5, 0x26, 0xd0, 0x2d, 0x11, 0x1e,
  0xdf, 0xda, 0x0e, 0xb8, 0x00, 0xe9, 0x2a, 0xe1, 0x12, 0xe3, 0x07, 0x22,
  0xf7, 0x4c, 0x37, 0x1b, 0x38, 0x6f, 0x54, 0x36, 0x23, 0x91, 0xf7, 0xfc,
  0x07, 0x1f, 0xb4, 0x9b, 0x05, 0xea, 0x31, 0xdb, 0xd8, 0x31, 0x28, 0xfe,
  0x01, 0xf4, 0xd5, 0x19, 0x19, 0xf7, 0xf6, 0x0f, 0x07, 0x00, 0x18, 0x13,
  0xe6, 0x30, 0x35, 0xfb, 0xc5, 0xd5, 0xce, 0xf0, 0x10, 0xfa, 0x3c, 0xed,
  0x07, 0x09, 0xec, 0xf5, 0x20, 0x08, 0xed, 0xc1, 0xeb, 0xf6, 0xdf, 0x21,
  0xb7, 0xc9, 0xa2, 0xd6, 0xea, 0x2b, 0xf1, 0x8d, 0x2a, 0xd4, 0x00, 0x00,
  0xed, 0x33, 0xdb, 0x17, 0x03, 0x27, 0xf6, 0xe4, 0xcc, 0xe4, 0x11, 0xf0,
  0xf2, 0x23, 0xff, 0x10, 0x07, 0x06, 0xed, 0xde, 0x2e, 0xec, 0x17, 0x19,
  0xcc, 0xcf, 0xf9, 0xf1, 0x3a, 0xff, 0xee, 0x1e, 0x24, 0xea, 0x0a, 0x1e,
  0x17, 0x05, 0xf9, 0xfc, 0x19, 0x2d, 0xc5, 0x29, 0xd4, 0x0f, 0xf3, 0x02,
  0x23, 0x2f, 0x32, 0x00, 0xde, 0x30, 0xe9, 0x16, 0x0a, 0x41, 0xf6, 0xf8,
  0x27, 0x16, 0x0b, 0x33, 0x0a, 0xf8, 0xf4, 0x05, 0x16, 0xf7, 0xed, 0x10,
  0x26, 0xed, 0x00, 0x22, 0x05, 0x0e, 0x00, 0xdf, 0xa2, 0xc9, 0x27, 0x0c,
  0x07, 0xf5, 0xca, 0x3c, 0x0a, 0xed, 0xe8, 0xd2, 0x21, 0x34, 0x1d, 0xf7,
  0x26, 0x18, 0xe0, 0xf6, 0x16, 0xd0, 0xc9, 0x2f, 0xdb, 0x0c, 0xd3, 0xe9,
  0x03, 0xf2, 0x04, 0xeb, 0x0f, 0xd4, 0xff, 0x0e, 0x07, 0xf5, 0x23, 0x12,
  0xbe, 0x03, 0x16, 0x23, 0xe2, 0x28, 0x42, 0xe9, 0x26, 0x1a, 0x04, 0x0d,
  0x14, 0xfd, 0xe5, 0xfe, 0xef, 0x2c, 0x4f, 0xe2, 0x22, 0xf7, 0xec, 0x11,
  0xfe, 0xdc, 0x0c, 0xb9, 0x0b, 0xf6, 0x35, 0xf2, 0x05, 0x10, 0x00, 0x06,
  0xe9, 0x11, 0x1e, 0xf4, 0x00, 0x10, 0xba, 0x04, 0xec, 0x03, 0x0c, 0xfd,
  0x0c, 0x1e, 0xfa, 0x37, 0xfa, 0x37, 0xf1, 0x68, 0x10, 0xf0, 0x02, 0xc2,
  0xfd, 0xf9, 0x03, 0xcb, 0x0b, 0xd4, 0xe1, 0x5c, 0xfb, 0xbf, 0x08, 0xc0,
  0xf5, 0x15, 0x1b, 0xef, 0x06, 0x07, 0x15, 0xe0, 0x58, 0xd8, 0xec, 0xd0,
  0x11, 0xe8, 0xf8, 0x01, 0x04, 0x51, 0x14, 0x13, 0xd8, 0x17, 0xf3, 0xf2,
  0xd6, 0xdb, 0xe8, 0x2f, 0xd6, 0xb0, 0x11, 0x02, 0xc6, 0x7f, 0xed, 0xf7,
  0xf2, 0xf1, 0x0e, 0x33, 0x22, 0xde, 0x05, 0x25, 0x26, 0x08, 0xdf, 0x47,
  0x13, 0x09, 0xf0, 0xab, 0x0d, 0x1a, 0xf9, 0x2f, 0x25, 0x19, 0xed, 0x04,
  0x05, 0xb5, 0xf0, 0xd9, 0x10, 0xe5, 0xed, 0x1b, 0xf2, 0x25, 0xf6, 0xe8,
  0x1c, 0x0b, 0xef, 0x08, 0x1b, 0xcf, 0xd7, 0xce, 0x42, 0x09, 0xf9, 0xdf,
  0x0d, 0x32, 0x0d, 0x3f, 0x4e, 0x8e, 0x01, 0xfc, 0xdb, 0x0b, 0xe4, 0x14,
  0xd7, 0xe3, 0xf2, 0x2a, 0x19, 0x10, 0x1a, 0x2a, 0x1d, 0xe8, 0x0a, 0x18,
  0xbd, 0x15, 0x23, 0xbc, 0xfd, 0xc0, 0x20, 0x01, 0x4c, 0xdd, 0x58, 0xb3,
  0xcc, 0x65, 0x04, 0x60, 0x15, 0xed, 0xed, 0x32, 0x09, 0x3e, 0xae, 0xf1,
  0xe8, 0xe7, 0xe0, 0x23, 0x0b, 0x1b, 0x07, 0x13, 0x35, 0xe5, 0xd3, 0x29,
  0x2a, 0xed, 0xf2, 0x12, 0xe6, 0xc0, 0xcd, 0x1a, 0xe0, 0x37, 0x0a, 0xe2,
  0x31, 0x31, 0x1e, 0xe2, 0x41, 0xc1, 0x38, 0x10, 0x18, 0xbf, 0xea, 0x1b,
  0x06, 0xe1, 0xf8, 0x1d, 0x00, 0x0d, 0x1f, 0x1c, 0xe1, 0xeb, 0x0b, 0xd9,
  0xcd, 0x03, 0x05, 0x03, 0xff, 0xf4, 0x14, 0xfe, 0xf1, 0x4f, 0xd6, 0xf8,
  0x27, 0xb5, 0xcf, 0x07, 0xd4, 0x1a, 0xbc, 0x2b, 0x0c, 0x3c, 0xe0, 0xc0,
  0x22, 0xad, 0x0f, 0xf4, 0xda, 0x17, 0x1d, 0x3c, 0xaf, 0x08, 0xc9, 0x08,
  0x14, 0x01, 0x2c, 0xfa, 0xf5, 0xf7, 0x2c, 0xdd, 0x14, 0x54, 0xbc, 0x26,
  0xea, 0x1b, 0x40, 0xc0, 0xfa, 0xeb, 0x77, 0x1f, 0x31, 0xe2, 0xf5, 0x1b,
  0xda, 0xd3, 0xc5, 0xf5, 0x17, 0xcb, 0x19, 0x0a, 0xee, 0x1a, 0x44, 0xe1,
  0xd6, 0x35, 0xe2, 0x04, 0xde, 0xd3, 0x18, 0x1e, 0x09, 0x1b, 0x1c, 0xf1,
  0xd9, 0x39, 0x0f, 0x0f, 0xfb, 0xcf, 0x1e, 0x7f, 0x27, 0xe4, 0x81, 0xf8,
  0xff, 0x1d, 0x3f, 0xf9, 0xfb, 0x58, 0x3e, 0x06, 0xed, 0x12, 0xec, 0x4c,
  0x2d, 0xde, 0xfa, 0xe3, 0x16, 0x44, 0xfd, 0xcf, 0x50, 0xdd, 0x51, 0x06,
  0xfa, 0x19, 0xd5, 0x4c, 0xed, 0x21, 0x47, 0x2f, 0xe6, 0x2b, 0xfb, 0x01,
  0x23, 0xfa, 0xeb, 0xcc, 0x2d, 0xae, 0xd8, 0x2b, 0x37, 0x69, 0x2d, 0x06,
  0x32, 0x42, 0x36, 0x2e, 0x02, 0xf5, 0x1e, 0x27, 0xf7, 0x2f, 0x23, 0xeb,
  0x18, 0x37, 0x0b, 0x38, 0x29, 0x0f, 0x05, 0x23, 0x29, 0xe8, 0xe6, 0xc7,
  0x09, 0x11, 0x14, 0xf6, 0x3b, 0x06, 0x24, 0x0b, 0xf5, 0xfb, 0xe1, 0xf8,
  0x02, 0xb1, 0xee, 0x00, 0xf4, 0x1e, 0xde, 0x07, 0x2e, 0x23, 0x40, 0x23,
  0xe0, 0xff, 0x0e, 0x08, 0x14, 0xf9, 0x24, 0x02, 0xdb, 0x5f, 0xce, 0xcf,
  0xee, 0xf3, 0x45, 0x16, 0x0d, 0x32, 0x0f, 0xf3, 0x20, 0x02, 0xe5, 0x4c,
  0xee, 0xbd, 0xfd, 0xae, 0x2e, 0xd3, 0x3b, 0xee, 0xe5, 0xd6, 0xd1, 0xfb,
  0x45, 0x23, 0x1a, 0xf9, 0x09, 0x0f, 0x2b, 0x46, 0x2e, 0xff, 0x55, 0x23,
  0x24, 0x3e, 0x06, 0x2a, 0xf8, 0xf8, 0x01, 0x18, 0xcf, 0x04, 0x25, 0xed,
  0xe3, 0xc2, 0xba, 0xb6, 0x34, 0x3f, 0xf8, 0x01, 0xed, 0xcd, 0x27, 0x01,
  0xdc, 0x12, 0xd6, 0xbe, 0x39, 0x34, 0xe9, 0xc4, 0x02, 0x62, 0x25, 0xd0,
  0xdc, 0x22, 0x2c, 0xe9, 0x1e, 0x34, 0xe9, 0x25, 0x4c, 0x32, 0xb4, 0xf4,
  0x03, 0x38, 0xd0, 0x97, 0x0c, 0x1a, 0x39, 0x0f, 0xe1, 0x82, 0x2e, 0xee,
  0x17, 0x16, 0x1d, 0x0a, 0x02, 0x38, 0xf4, 0x9c, 0x28, 0xb4, 0x29, 0x2d,
  0x36, 0x37, 0xe7, 0x2c, 0x1f, 0x06, 0x1c, 0x8c, 0x15, 0x22, 0x29, 0x18,
  0xa3, 0x1e, 0xef, 0x33, 0x4f, 0xb9, 0xa5, 0x55, 0x2e, 0x02, 0x2a, 0x21,
  0xf7, 0xf3, 0xf4, 0x45, 0x33, 0xec, 0x83, 0xd8, 0xe9, 0x49, 0xed, 0xcc,
  0x58, 0x14, 0xe8, 0x12, 0xd3, 0x0f, 0x08, 0xd3, 0x17, 0x47, 0xff, 0xf2,
  0x13, 0x34, 0x19, 0x02, 0x17, 0x07, 0x1e, 0x0d, 0x25, 0xd7, 0xdc, 0xda,
  0x4e, 0xd9, 0x0a, 0xf1, 0x3d, 0x2c, 0xc6, 0x02, 0xc6, 0x00, 0x5a, 0x32,
  0xf2, 0xeb, 0xe7, 0x51, 0x2b, 0xc4, 0xdd, 0xd2, 0xf4, 0x29, 0xe0, 0x04,
  0x05, 0x30, 0x13, 0x13, 0xd4, 0xbd, 0xb5, 0x34, 0xb1, 0x0a, 0xca, 0x51,
  0x42, 0xc0, 0x19, 0x81, 0xc7, 0xc2, 0xd3, 0xcf, 0x35, 0xc0, 0x0c, 0x60,
  0xef, 0xed, 0x53, 0x08, 0xf4, 0x4f, 0xe7, 0x24, 0x11, 0xa1, 0xfa, 0x36,
  0xf6, 0x3e, 0xf0, 0xbf, 0x42, 0xed, 0x05, 0x24, 0xd7, 0xfb, 0x36, 0xed,
  0x25, 0x0a, 0xeb, 0x0a, 0xe1, 0x08, 0x4c, 0xbe, 0xc4, 0x2c, 0xfd, 0x35,
  0xd0, 0x0c, 0xf9, 0x4e, 0xe7, 0xf5, 0xa2, 0xfa, 0x18, 0xf7, 0x38, 0x09,
  0xe9, 0x00, 0xbe, 0xfc, 0xf6, 0xa6, 0x18, 0x0a, 0x1e, 0x61, 0xda, 0x08,
  0xcb, 0x04, 0xdc, 0xec, 0xe6, 0x1e, 0xe1, 0xe2, 0x0e, 0x47, 0x06, 0x2b,
  0xef, 0xef, 0x0f, 0xff, 0xf4, 0xf4, 0x29, 0x43, 0xd9, 0x04, 0xbe, 0xe5,
  0xe7, 0x2f, 0xf5, 0x39, 0xfe, 0x15, 0xf9, 0xc3, 0xbb, 0x1e, 0xf0, 0x26,
  0xe3, 0xfc, 0x07, 0x3d, 0x1c, 0x29, 0x49, 0x1e, 0x1c, 0xb6, 0xf0, 0xf1,
  0x0f, 0xea, 0xeb, 0x16, 0xe2, 0x81, 0x9a, 0xdd, 0x44, 0x04, 0xef, 0x1a,
  0x19, 0xe7, 0xd1, 0xed, 0x15, 0xf7, 0xff, 0xe4, 0xf3, 0x20, 0xed, 0xf5,
  0x21, 0xdf, 0xf8, 0xe1, 0xf8, 0xeb, 0x3c, 0xea, 0x09, 0x2a, 0x4d, 0x5d,
  0x1b, 0x22, 0x13, 0x31, 0xdc, 0x1e, 0x04, 0xa6, 0x15, 0x1c, 0xa9, 0xa7,
  0xd6, 0x1e, 0xf3, 0xa2, 0x47, 0x05, 0xea, 0xbd, 0xe5, 0xa0, 0xeb, 0xfc,
  0x02, 0xfd, 0xe0, 0x20, 0xfe, 0x22, 0xd4, 0x17, 0xb0, 0x16, 0x3e, 0xce,
  0x11, 0x1c, 0xfd, 0x28, 0xf3, 0x07, 0xde, 0xcd, 0x33, 0x16, 0x34, 0x23,
  0x05, 0x11, 0xdb, 0x22, 0x26, 0xd0, 0xf7, 0x4a, 0xfe, 0x48, 0x12, 0xfd,
  0xf4, 0xf4, 0xbe, 0x35, 0x27, 0xd5, 0xc9, 0xab, 0xd5, 0x16, 0x1b, 0x1e,
  0x18, 0x2c, 0x02, 0xd1, 0xea, 0x18, 0x24, 0xed, 0x1b, 0x44, 0x98, 0xed,
  0x2d, 0x37, 0x00, 0xd2, 0x19, 0x30, 0xfe, 0x03, 0x00, 0x0f, 0x14, 0xed,
  0x01, 0x2d, 0xea, 0x09, 0xdf, 0xfe, 0xf2, 0x01, 0xdb, 0xf8, 0xf6, 0x3d,
  0xcb, 0x28, 0xde, 0x1a, 0x0f, 0x2e, 0x11, 0x8b, 0xf4, 0x45, 0xc5, 0x3f,
  0xfa, 0xfd, 0x18, 0x21, 0x1b, 0xc6, 0xdb, 0x29, 0xb7, 0x24, 0x35, 0xbf,
  0xe8, 0xf3, 0xf2, 0x0c, 0x01, 0xbc, 0xe7, 0x2b, 0x1d, 0x28, 0x0f, 0xe7,
  0x05, 0xd9, 0xe6, 0xd0, 0x07, 0x2d, 0xd5, 0x1f, 0xe2, 0x09, 0x11, 0x08,
  0xe2, 0xcc, 0xbb, 0xd1, 0x15, 0xeb, 0x48, 0x9f, 0x0b, 0xfb, 0xfe, 0x00,
  0xba, 0xe3, 0x31, 0x0a, 0x01, 0xd4, 0xee, 0xed, 0xf5, 0x09, 0xd3, 0xdd,
  0xcb, 0x1c, 0x23, 0x25, 0x9a, 0x2a, 0xc9, 0xe9, 0xf9, 0xf7, 0xf1, 0x35,
  0x46, 0xff, 0xff, 0xff, 0x04, 0x00, 0x00, 0x00, 0x80, 0x00, 0x00, 0x00,
  0xe8, 0xff, 0xff, 0xff, 0x11, 0x00, 0x00, 0x00, 0xf0, 0xff, 0xff, 0xff,
